{
  "version": "1.0",
  "truncation": null,
  "padding": null,
  "added_tokens": [
    {
      "id": 0,
      "content": "[PAD]",
      "single_word": false,
      "lstrip": false,
      "rstrip": false,
      "normalized": false,
      "special": true
    },
    {
      "id": 1,
      "content": "[UNK]",
      "single_word": false,
      "lstrip": false,
      "rstrip": false,
      "normalized": false,
      "special": true
    },
    {
      "id": 2,
      "content": "[CLS]",
      "single_word": false,
      "lstrip": false,
      "rstrip": false,
      "normalized": false,
      "special": true
    },
    {
      "id": 3,
      "content": "[SEP]",
      "single_word": false,
      "lstrip": false,
      "rstrip": false,
      "normalized": false,
      "special": true
    },
    {
      "id": 4,
      "content": "[MASK]",
      "single_word": false,
      "lstrip": false,
      "rstrip": false,
      "normalized": false,
      "special": true
    }
  ],
  "normalizer": null,
  "pre_tokenizer": {
    "type": "ByteLevel",
    "add_prefix_space": false,
    "trim_offsets": true,
    "use_regex": true
  },
  "post_processor": {
    "type": "TemplateProcessing",
    "single": [
      {
        "SpecialToken": {
          "id": "[CLS]",
          "type_id": 0
        }
      },
      {
        "Sequence": {
          "id": "A",
          "type_id": 0
        }
      },
      {
        "SpecialToken": {
          "id": "[SEP]",
          "type_id": 0
        }
      }
    ],
    "pair": [
      {
        "SpecialToken": {
          "id": "[CLS]",
          "type_id": 0
        }
      },
      {
        "Sequence": {
          "id": "A",
          "type_id": 0
        }
      },
      {
        "SpecialToken": {
          "id": "[SEP]",
          "type_id": 0
        }
      },
      {
        "Sequence": {
          "id": "B",
          "type_id": 0
        }
      },
      {
        "SpecialToken": {
          "id": "[SEP]",
          "type_id": 0
        }
      }
    ],
    "special_tokens": {
      "[CLS]": {
        "id": "[CLS]",
        "ids": [
          2
        ],
        "tokens": [
          "[CLS]"
        ]
      },
      "[SEP]": {
        "id": "[SEP]",
        "ids": [
          3
        ],
        "tokens": [
          "[SEP]"
        ]
      }
    }
  },
  "decoder": {
    "type": "ByteLevel",
    "add_prefix_space": true,
    "trim_offsets": true,
    "use_regex": true
  },
  "model": {
    "type": "BPE",
    "dropout": null,
    "unk_token": "[UNK]",
    "continuing_subword_prefix": null,
    "end_of_word_suffix": null,
    "fuse_unk": false,
    "byte_fallback": false,
    "ignore_merges": false,
    "vocab": {
      "[PAD]": 0,
      "[UNK]": 1,
      "[CLS]": 2,
      "[SEP]": 3,
      "[MASK]": 4,
      "!": 5,
      "\"": 6,
      "#": 7,
      "$": 8,
      "%": 9,
      "&": 10,
      "'": 11,
      "(": 12,
      ")": 13,
      "*": 14,
      "+": 15,
      ",": 16,
      "-": 17,
      ".": 18,
      "/": 19,
      "0": 20,
      "1": 21,
      "2": 22,
      "3": 23,
      "4": 24,
      "5": 25,
      "6": 26,
      "7": 27,
      "8": 28,
      "9": 29,
      ":": 30,
      ";": 31,
      "<": 32,
      "=": 33,
      ">": 34,
      "?": 35,
      "@": 36,
      "A": 37,
      "B": 38,
      "C": 39,
      "D": 40,
      "E": 41,
      "F": 42,
      "G": 43,
      "H": 44,
      "I": 45,
      "J": 46,
      "K": 47,
      "L": 48,
      "M": 49,
      "N": 50,
      "O": 51,
      "P": 52,
      "Q": 53,
      "R": 54,
      "S": 55,
      "T": 56,
      "U": 57,
      "V": 58,
      "W": 59,
      "X": 60,
      "Y": 61,
      "Z": 62,
      "[": 63,
      "\\": 64,
      "]": 65,
      "^": 66,
      "_": 67,
      "`": 68,
      "a": 69,
      "b": 70,
      "c": 71,
      "d": 72,
      "e": 73,
      "f": 74,
      "g": 75,
      "h": 76,
      "i": 77,
      "j": 78,
      "k": 79,
      "l": 80,
      "m": 81,
      "n": 82,
      "o": 83,
      "p": 84,
      "q": 85,
      "r": 86,
      "s": 87,
      "t": 88,
      "u": 89,
      "v": 90,
      "w": 91,
      "x": 92,
      "y": 93,
      "z": 94,
      "{": 95,
      "|": 96,
      "}": 97,
      "~": 98,
      "¡": 99,
      "¢": 100,
      "£": 101,
      "¤": 102,
      "¥": 103,
      "¦": 104,
      "§": 105,
      "¨": 106,
      "©": 107,
      "ª": 108,
      "«": 109,
      "¬": 110,
      "®": 111,
      "¯": 112,
      "°": 113,
      "±": 114,
      "²": 115,
      "³": 116,
      "´": 117,
      "µ": 118,
      "¶": 119,
      "·": 120,
      "¸": 121,
      "¹": 122,
      "º": 123,
      "»": 124,
      "¼": 125,
      "½": 126,
      "¾": 127,
      "¿": 128,
      "À": 129,
      "Á": 130,
      "Â": 131,
      "Ã": 132,
      "Ä": 133,
      "Å": 134,
      "Æ": 135,
      "Ç": 136,
      "È": 137,
      "É": 138,
      "Ê": 139,
      "Ë": 140,
      "Ì": 141,
      "Í": 142,
      "Î": 143,
      "Ï": 144,
      "Ð": 145,
      "Ñ": 146,
      "Ò": 147,
      "Ó": 148,
      "Ô": 149,
      "Õ": 150,
      "Ö": 151,
      "×": 152,
      "Ø": 153,
      "Ù": 154,
      "Ú": 155,
      "Û": 156,
      "Ü": 157,
      "Ý": 158,
      "Þ": 159,
      "ß": 160,
      "à": 161,
      "á": 162,
      "â": 163,
      "ã": 164,
      "ä": 165,
      "å": 166,
      "æ": 167,
      "ç": 168,
      "è": 169,
      "é": 170,
      "ê": 171,
      "ë": 172,
      "ì": 173,
      "í": 174,
      "î": 175,
      "ï": 176,
      "ð": 177,
      "ñ": 178,
      "ò": 179,
      "ó": 180,
      "ô": 181,
      "õ": 182,
      "ö": 183,
      "÷": 184,
      "ø": 185,
      "ù": 186,
      "ú": 187,
      "û": 188,
      "ü": 189,
      "ý": 190,
      "þ": 191,
      "ÿ": 192,
      "Ā": 193,
      "ā": 194,
      "Ă": 195,
      "ă": 196,
      "Ą": 197,
      "ą": 198,
      "Ć": 199,
      "ć": 200,
      "Ĉ": 201,
      "ĉ": 202,
      "Ċ": 203,
      "ċ": 204,
      "Č": 205,
      "č": 206,
      "Ď": 207,
      "ď": 208,
      "Đ": 209,
      "đ": 210,
      "Ē": 211,
      "ē": 212,
      "Ĕ": 213,
      "ĕ": 214,
      "Ė": 215,
      "ė": 216,
      "Ę": 217,
      "ę": 218,
      "Ě": 219,
      "ě": 220,
      "Ĝ": 221,
      "ĝ": 222,
      "Ğ": 223,
      "ğ": 224,
      "Ġ": 225,
      "ġ": 226,
      "Ģ": 227,
      "ģ": 228,
      "Ĥ": 229,
      "ĥ": 230,
      "Ħ": 231,
      "ħ": 232,
      "Ĩ": 233,
      "ĩ": 234,
      "Ī": 235,
      "ī": 236,
      "Ĭ": 237,
      "ĭ": 238,
      "Į": 239,
      "į": 240,
      "İ": 241,
      "ı": 242,
      "Ĳ": 243,
      "ĳ": 244,
      "Ĵ": 245,
      "ĵ": 246,
      "Ķ": 247,
      "ķ": 248,
      "ĸ": 249,
      "Ĺ": 250,
      "ĺ": 251,
      "Ļ": 252,
      "ļ": 253,
      "Ľ": 254,
      "ľ": 255,
      "Ŀ": 256,
      "ŀ": 257,
      "Ł": 258,
      "ł": 259,
      "Ń": 260,
      "er": 261,
      "or": 262,
      "in": 263,
      "ed": 264,
      "Ġf": 265,
      "nd": 266,
      "Ġa": 267,
      "st": 268,
      "re": 269,
      "Ġin": 270,
      "ge": 271,
      "Ġfor": 272,
      "ĠS": 273,
      "age": 274,
      "Ġo": 275,
      "Ġ|": 276,
      "Ġp": 277,
      "en": 278,
      "ro": 279,
      "ck": 280,
      "al": 281,
      "at": 282,
      "ers": 283,
      "ack": 284,
      "ĠL": 285,
      "ar": 286,
      "ine": 287,
      "ord": 288,
      "end": 289,
      "ist": 290,
      "line": 291,
      "Ġon": 292,
      "Ġst": 293,
      "ent": 294,
      "Ġonline": 295,
      "ery": 296,
      "Ġg": 297,
      "ĠC": 298,
      "Ġord": 299,
      "ended": 300,
      "und": 301,
      "roc": 302,
      "Ġand": 303,
      "tended": 304,
      "Ġund": 305,
      "orage": 306,
      "Ġintended": 307,
      "Ġpack": 308,
      "ĠList": 309,
      "Ġstorage": 310,
      "Ġgroc": 311,
      "Ġorders": 312,
      "Ġunder": 313,
      "Ġpackage": 314,
      "ĠListed": 315,
      "Ġgrocery": 316,
      "il": 317,
      "Ġc": 318,
      "ĠF": 319,
      "le": 320,
      "Ġre": 321,
      "ient": 322,
      "ur": 323,
      "ĠP": 324,
      "ĠSal": 325,
      "Ġb": 326,
      "ĠSalt": 327,
      "on": 328,
      "an": 329,
      "Ġoz": 330,
      "it": 331,
      "ce": 332,
      "Ġs": 333,
      "Ġt": 334,
      "mb": 335,
      "Ġamb": 336,
      "Ġambient": 337,
      "he": 338,
      "la": 339,
      "ea": 340,
      "ho": 341,
      "Ġ1": 342,
      "ĠM": 343,
      "ĠW": 344,
      "ly": 345,
      "ri": 346,
      "ĠG": 347,
      "ĠB": 348,
      "am": 349,
      "ĠR": 350,
      "Ġl": 351,
      "ra": 352,
      "ab": 353,
      "et": 354,
      "ul": 355,
      "om": 356,
      "ry": 357,
      "is": 358,
      "Ġm": 359,
      "ĠFre": 360,
      "ated": 361,
      "od": 362,
      "ing": 363,
      "ĠO": 364,
      "ĠA": 365,
      "ater": 366,
      "sh": 367,
      "fri": 368,
      "ger": 369,
      "Ġrefri": 370,
      "gerated": 371,
      "Ġrefrigerated": 372,
      "Ġfro": 373,
      "ĠPre": 374,
      "ĠT": 375,
      "ld": 376,
      "Ġcu": 377,
      "zen": 378,
      "es": 379,
      "iv": 380,
      "Ġfl": 381,
      "gr": 382,
      "ĠN": 383,
      "uce": 384,
      "edient": 385,
      "Ġingr": 386,
      "edients": 387,
      "Ġingredients": 388,
      "par": 389,
      "stom": 390,
      "Ġcustom": 391,
      "Ġthe": 392,
      "ĠH": 393,
      "ant": 394,
      "back": 395,
      "eed": 396,
      "eedback": 397,
      "vor": 398,
      "Ġfla": 399,
      "atur": 400,
      "ĠNatur": 401,
      "vors": 402,
      "Ġflavors": 403,
      "ĠNatural": 404,
      "ood": 405,
      "ily": 406,
      "Ġby": 407,
      "Ġfrozen": 408,
      "eat": 409,
      "Ġpro": 410,
      "ak": 411,
      "able": 412,
      "ream": 413,
      "ĠPrepar": 414,
      "ĠPrepared": 415,
      "duce": 416,
      "Ġproduce": 417,
      "art": 418,
      "ut": 419,
      "ure": 420,
      "are": 421,
      "ĠCream": 422,
      "antry": 423,
      "ered": 424,
      "ch": 425,
      "Ġof": 426,
      "ket": 427,
      "Ġfeedback": 428,
      "ug": 429,
      "Ġ12": 430,
      "Ġit": 431,
      "us": 432,
      "Ġd": 433,
      "ĠSt": 434,
      "as": 435,
      "pp": 436,
      "hi": 437,
      "ĠSea": 438,
      "use": 439,
      "ice": 440,
      "rain": 441,
      "our": 442,
      "Ġlb": 443,
      "Ġ3": 444,
      "Ġto": 445,
      "ult": 446,
      "Ġw": 447,
      "ss": 448,
      "ĠCo": 449,
      "ĠGrain": 450,
      "Ġ2": 451,
      "ĠFree": 452,
      "gul": 453,
      "Ġregul": 454,
      "Ġregular": 455,
      "im": 456,
      "ited": 457,
      "imited": 458,
      "ĠFam": 459,
      "ĠFamily": 460,
      "Ġcustomers": 461,
      "hole": 462,
      "ic": 463,
      "ne": 464,
      "ently": 465,
      "Ġsho": 466,
      "ppers": 467,
      "Ġshoppers": 468,
      "Ġct": 469,
      "ilk": 470,
      "og": 471,
      "ĠCult": 472,
      "Ġpantry": 473,
      "ps": 474,
      "Ġbe": 475,
      "ĠSp": 476,
      "em": 477,
      "ĠSug": 478,
      "ĠSugar": 479,
      "arket": 480,
      "ĠFresh": 481,
      "ort": 482,
      "gh": 483,
      "ĠWhole": 484,
      "um": 485,
      "un": 486,
      "Ġwater": 487,
      "ons": 488,
      "iz": 489,
      "ie": 490,
      "hold": 491,
      "usehold": 492,
      "ll": 493,
      "ĠMilk": 494,
      "ĠHo": 495,
      "ĠRe": 496,
      "erson": 497,
      "Ġcare": 498,
      "ersonal": 499,
      "ast": 500,
      "we": 501,
      "ĠY": 502,
      "ĠFil": 503,
      "ĠWater": 504,
      "up": 505,
      "Ġ32": 506,
      "rg": 507,
      "food": 508,
      "ices": 509,
      "ked": 510,
      "heat": 511,
      "ĠSiz": 512,
      "ĠSize": 513,
      "Ġ16": 514,
      "ĠLo": 515,
      "weet": 516,
      "ft": 517,
      "tered": 518,
      "ver": 519,
      "ages": 520,
      "Ġbever": 521,
      "ĠFiltered": 522,
      "Ġbeverages": 523,
      "ium": 524,
      "Ġas": 525,
      "Ġpart": 526,
      "Ġflour": 527,
      "son": 528,
      "ĠSeason": 529,
      "less": 530,
      "reen": 531,
      "ordered": 532,
      "Ġreordered": 533,
      "ĠWheat": 534,
      "af": 535,
      "ive": 536,
      "Ġcustomer": 537,
      "ai": 538,
      "ures": 539,
      "Ġdai": 540,
      "ĠCultures": 541,
      "Ġdairy": 542,
      "ail": 543,
      "vail": 544,
      "pur": 545,
      "qu": 546,
      "Ġais": 547,
      "ceiv": 548,
      "ĠOne": 549,
      "chas": 550,
      "Ġits": 551,
      "Ġitem": 552,
      "purchas": 553,
      "Ġaisle": 554,
      "Ġitems": 555,
      "purchased": 556,
      "dd": 557,
      "Ġadd": 558,
      "alog": 559,
      "atalog": 560,
      "Ġcatalog": 561,
      "ĠCreamy": 562,
      "Ġlimited": 563,
      "ity": 564,
      "Ġbak": 565,
      "east": 566,
      "ĠYeast": 567,
      "Ġbakery": 568,
      "onsist": 569,
      "Da": 570,
      "Daily": 571,
      "ato": 572,
      "Ġso": 573,
      "ap": 574,
      "Ġpo": 575,
      "ĠOil": 576,
      "ĠSpices": 577,
      "lu": 578,
      "lue": 579,
      "ĠV": 580,
      "ĠLow": 581,
      "ix": 582,
      "ĠSo": 583,
      "ner": 584,
      "Ġ6": 585,
      "ened": 586,
      "weetened": 587,
      "hips": 588,
      "ac": 589,
      "hees": 590,
      "heese": 591,
      "nack": 592,
      "nacks": 593,
      "Ġ8": 594,
      "ĠMeat": 595,
      "Ġmeat": 596,
      "ad": 597,
      "ion": 598,
      "Ġsnacks": 599,
      "ĠTo": 600,
      "ve": 601,
      "ork": 602,
      "ĠGrains": 603,
      "ĠSeasoning": 604,
      "ial": 605,
      "old": 606,
      "illa": 607,
      "aby": 608,
      "Fre": 609,
      "Fie": 610,
      "shFie": 611,
      "FreshFie": 612,
      "FreshField": 613,
      "ash": 614,
      "ol": 615,
      "sit": 616,
      "sitive": 617,
      "igh": 618,
      "tly": 619,
      "ĠLigh": 620,
      "ĠLightly": 621,
      "ĠMin": 622,
      "ixed": 623,
      "Blue": 624,
      "ĠCart": 625,
      "Market": 626,
      "ĠPantry": 627,
      "ĠRec": 628,
      "ĠTable": 629,
      "Pure": 630,
      "ĠGood": 631,
      "Purely": 632,
      "ĠPack": 633,
      "Har": 634,
      "ĠE": 635,
      "ĠLan": 636,
      "vest": 637,
      "Harvest": 638,
      "ĠLane": 639,
      "Cor": 640,
      "ĠMarket": 641,
      "Corner": 642,
      "Oak": 643,
      "and": 644,
      "Ġ&": 645,
      "Un": 646,
      "ĠUn": 647,
      "ĠUns": 648,
      "Nort": 649,
      "all": 650,
      "ĠFood": 651,
      "ĠStar": 652,
      "North": 653,
      "ĠFoods": 654,
      "Riv": 655,
      "bend": 656,
      "erbend": 657,
      "Ġmo": 658,
      "Riverbend": 659,
      "ick": 660,
      "Sun": 661,
      "ny": 662,
      "ĠBas": 663,
      "Sunny": 664,
      "ĠBasket": 665,
      "Gold": 666,
      "cre": 667,
      "ĠAcre": 668,
      "Golden": 669,
      "mu": 670,
      "ĠD": 671,
      "mula": 672,
      "ean": 673,
      "Ġpast": 674,
      "ock": 675,
      "ĠCla": 676,
      "ber": 677,
      "fe": 678,
      "Val": 679,
      "ct": 680,
      "ele": 681,
      "ĠSele": 682,
      "ley": 683,
      "Valley": 684,
      "ĠSelect": 685,
      "high": 686,
      "Ġho": 687,
      "Ġmater": 688,
      "ĠHousehold": 689,
      "ials": 690,
      "Ġhousehold": 691,
      "Ġmaterials": 692,
      "ener": 693,
      "Ġformula": 694,
      "tt": 695,
      "Green": 696,
      "ĠFork": 697,
      "ition": 698,
      "pe": 699,
      "Ġco": 700,
      "Ġmixed": 701,
      "Ġde": 702,
      "irg": 703,
      "tra": 704,
      "xtra": 705,
      "Ġpersonal": 706,
      "ĠPersonal": 707,
      "ĠVirg": 708,
      "ĠExtra": 709,
      "ĠVirgin": 710,
      "dy": 711,
      "eady": 712,
      "ĠReady": 713,
      "Ġ24": 714,
      "Ced": 715,
      "ĠHouse": 716,
      "Cedar": 717,
      "ssic": 718,
      "ĠClassic": 719,
      "Ġsea": 720,
      "ĠSeafood": 721,
      "Ġseafood": 722,
      "rais": 723,
      "ĠSod": 724,
      "ĠSodium": 725,
      "Ġfar": 726,
      "ĠLimited": 727,
      "cc": 728,
      "pend": 729,
      "vie": 730,
      "ws": 731,
      "Ġacc": 732,
      "Ġpick": 733,
      "ording": 734,
      "Ġrevie": 735,
      "Ġdepend": 736,
      "Ġaccording": 737,
      "Ġreviews": 738,
      "Ġdependable": 739,
      "Ġline": 740,
      "ĠStock": 741,
      "Ġlineup": 742,
      "ĠStocked": 743,
      "ĠWash": 744,
      "ĠSoft": 745,
      "anic": 746,
      "omato": 747,
      "ĠOrg": 748,
      "ĠOrganic": 749,
      "ering": 750,
      "ard": 751,
      "Ġstand": 752,
      "Ġordering": 753,
      "ĠAvail": 754,
      "Ġstandard": 755,
      "ĠAvailable": 756,
      "ag": 757,
      "ĠStea": 758,
      "cent": 759,
      "vent": 760,
      "ory": 761,
      "Ġinvent": 762,
      "ĠShips": 763,
      "Ġinventory": 764,
      "ning": 765,
      "tur": 766,
      "Ġretur": 767,
      "ĠFrequ": 768,
      "Ġreturning": 769,
      "ĠFrequently": 770,
      "lut": 771,
      "ĠGlut": 772,
      "ĠGluten": 773,
      "ĠRare": 774,
      "ĠRarely": 775,
      "mium": 776,
      "ĠPremium": 777,
      "Ġless": 778,
      "repurchased": 779,
      "Ġfrom": 780,
      "ĠReceiv": 781,
      "ĠReceived": 782,
      "Ġsp": 783,
      "wer": 784,
      "Ġne": 785,
      "Ġaddition": 786,
      "Ġnewer": 787,
      "ĠSm": 788,
      "ally": 789,
      "ĠCr": 790,
      "Ġreceiv": 791,
      "ĠGener": 792,
      "Ġpositive": 793,
      "Ġreceives": 794,
      "ĠGenerally": 795,
      "his": 796,
      "Ġis": 797,
      "isting": 798,
      "Ġstil": 799,
      "ĠFeedback": 800,
      "Ġthis": 801,
      "Ġlisting": 802,
      "Ġstill": 803,
      "Ġrepurchased": 804,
      "Ġmost": 805,
      "cken": 806,
      "hicken": 807,
      "Ġadded": 808,
      "ĠRecently": 809,
      "ĠWashed": 810,
      "ĠSl": 811,
      "Ġqu": 812,
      "Ġhigh": 813,
      "Ġfut": 814,
      "Ġavail": 815,
      "ality": 816,
      "arked": 817,
      "ility": 818,
      "Ġconsist": 819,
      "ĠMarked": 820,
      "ĠRated": 821,
      "ability": 822,
      "lls": 823,
      "Ġquality": 824,
      "Ġhighly": 825,
      "Ġfuture": 826,
      "Ġavailability": 827,
      "Ġconsistent": 828,
      "ĠMini": 829,
      "com": 830,
      "mended": 831,
      "peat": 832,
      "Ġrecom": 833,
      "Ġrepeat": 834,
      "ĠOft": 835,
      "Ġrecommended": 836,
      "ĠOften": 837,
      "one": 838,
      "Ġprais": 839,
      "ĠConsist": 840,
      "Ġpraised": 841,
      "ĠConsistently": 842,
      "ell": 843,
      "iked": 844,
      "ĠWell": 845,
      "Ġliked": 846,
      "kin": 847,
      "ĠSkin": 848,
      "ĠCaf": 849,
      "urt": 850,
      "ogurt": 851,
      "feine": 852,
      "ĠCaffeine": 853,
      "ĠPul": 854,
      "ĠPulp": 855,
      "Zer": 856,
      "ter": 857,
      "ĠZer": 858,
      "utter": 859,
      "ĠZero": 860,
      "led": 861,
      "oc": 862,
      "ets": 863,
      "ugh": 864,
      "ot": 865,
      "oli": 866,
      "ĠUnsweetened": 867,
      "uice": 868,
      "py": 869,
      "spy": 870,
      "ĠCri": 871,
      "ĠCrispy": 872,
      "ee": 873,
      "les": 874,
      "berry": 875,
      "ipe": 876,
      "ĠSweetened": 877,
      "atch": 878,
      "ured": 879,
      "ĠBatch": 880,
      "ĠRipe": 881,
      "ĠCultured": 882,
      "ĠSmall": 883,
      "ĠSour": 884,
      "Ġbre": 885,
      "ĠBre": 886,
      "ĠCheese": 887,
      "Ġcheese": 888,
      "ĠSalted": 889,
      "ace": 890,
      "face": 891,
      "urface": 892,
      "get": 893,
      "ĠLem": 894,
      "ĠLemon": 895,
      "anilla": 896,
      "rt": 897,
      "isan": 898,
      "ĠArt": 899,
      "ĠArtisan": 900,
      "mable": 901,
      "ĠSteamable": 902,
      "ach": 903,
      "inach": 904,
      "iced": 905,
      "ĠSliced": 906,
      "ok": 907,
      "mon": 908,
      "Ġbaby": 909,
      "ĠBaby": 910,
      "os": 911,
      "ĠHeat": 912,
      "ran": 913,
      "Ġro": 914,
      "ĠBak": 915,
      "ĠBaked": 916,
      "Ġ15": 917,
      "ortilla": 918,
      "ĠSurface": 919,
      "ĠFat": 920,
      "mo": 921,
      "alf": 922,
      "entle": 923,
      "Ġsal": 924,
      "ĠGentle": 925,
      "ey": 926,
      "key": 927,
      "Ġh": 928,
      "urkey": 929,
      "iss": 930,
      "hells": 931,
      "chy": 932,
      "unchy": 933,
      "aco": 934,
      "ĠCrunchy": 935,
      "ats": 936,
      "lled": 937,
      "ls": 938,
      "anan": 939,
      "ĠBone": 940,
      "ĠCook": 941,
      "ĠBoneless": 942,
      "live": 943,
      "ong": 944,
      "round": 945,
      "rozen": 946,
      "ĠFrozen": 947,
      "ĠMult": 948,
      "ĠMulti": 949,
      "ĠSeasoned": 950,
      "ree": 951,
      "ĠPart": 952,
      "ĠParty": 953,
      "Ġ64": 954,
      "ĠScent": 955,
      "Ġ20": 956,
      "lack": 957,
      "dr": 958,
      "ydr": 959,
      "ating": 960,
      "Ġtomato": 961,
      "ĠTomato": 962,
      "ĠHydr": 963,
      "ĠHydrating": 964,
      "rup": 965,
      "yrup": 966,
      "hett": 967,
      "ish": 968,
      "aple": 969,
      "ags": 970,
      "aghett": 971,
      "aghetti": 972,
      "auce": 973,
      "ĠLean": 974,
      "cu": 975,
      "mbers": 976,
      "pples": 977,
      "cumbers": 978,
      "ĠDaily": 979,
      "ĠCare": 980,
      "atoes": 981,
      "eanut": 982,
      "ĠI": 983,
      "ĠSh": 984,
      "Ġsh": 985,
      "ĠUnscent": 986,
      "ĠUnscented": 987,
      "aine": 988,
      "dar": 989,
      "hed": 990,
      "lmo": 991,
      "arp": 992,
      "ĠCu": 993,
      "ĠChicken": 994,
      "Ġchicken": 995,
      "arts": 996,
      "ade": 997,
      "heddar": 998,
      "lmond": 999,
      "ttage": 1000,
      "ananas": 1001,
      "ĠRo": 1002,
      "vy": 1003,
      "eavy": 1004,
      "ĠHeavy": 1005,
      "uty": 1006,
      "ĠDuty": 1007,
      "coli": 1008,
      "orets": 1009,
      "roccoli": 1010,
      "aper": 1011,
      "ĠMint": 1012,
      "ĠSkinless": 1013,
      "rin": 1014,
      "Ġgal": 1015,
      "ants": 1016,
      "orts": 1017,
      "rink": 1018,
      "ĠSen": 1019,
      "ĠSensitive": 1020,
      "Ġ10": 1021,
      "akes": 1022,
      "yogurt": 1023
    },
    "merges": [
      [
        "e",
        "r"
      ],
      [
        "o",
        "r"
      ],
      [
        "i",
        "n"
      ],
      [
        "e",
        "d"
      ],
      [
        "Ġ",
        "f"
      ],
      [
        "n",
        "d"
      ],
      [
        "Ġ",
        "a"
      ],
      [
        "s",
        "t"
      ],
      [
        "r",
        "e"
      ],
      [
        "Ġ",
        "in"
      ],
      [
        "g",
        "e"
      ],
      [
        "Ġf",
        "or"
      ],
      [
        "Ġ",
        "S"
      ],
      [
        "a",
        "ge"
      ],
      [
        "Ġ",
        "o"
      ],
      [
        "Ġ",
        "|"
      ],
      [
        "Ġ",
        "p"
      ],
      [
        "e",
        "n"
      ],
      [
        "r",
        "o"
      ],
      [
        "c",
        "k"
      ],
      [
        "a",
        "l"
      ],
      [
        "a",
        "t"
      ],
      [
        "er",
        "s"
      ],
      [
        "a",
        "ck"
      ],
      [
        "Ġ",
        "L"
      ],
      [
        "a",
        "r"
      ],
      [
        "in",
        "e"
      ],
      [
        "or",
        "d"
      ],
      [
        "e",
        "nd"
      ],
      [
        "i",
        "st"
      ],
      [
        "l",
        "ine"
      ],
      [
        "Ġo",
        "n"
      ],
      [
        "Ġ",
        "st"
      ],
      [
        "en",
        "t"
      ],
      [
        "Ġon",
        "line"
      ],
      [
        "er",
        "y"
      ],
      [
        "Ġ",
        "g"
      ],
      [
        "Ġ",
        "C"
      ],
      [
        "Ġ",
        "ord"
      ],
      [
        "end",
        "ed"
      ],
      [
        "u",
        "nd"
      ],
      [
        "ro",
        "c"
      ],
      [
        "Ġa",
        "nd"
      ],
      [
        "t",
        "ended"
      ],
      [
        "Ġ",
        "und"
      ],
      [
        "or",
        "age"
      ],
      [
        "Ġin",
        "tended"
      ],
      [
        "Ġp",
        "ack"
      ],
      [
        "ĠL",
        "ist"
      ],
      [
        "Ġst",
        "orage"
      ],
      [
        "Ġg",
        "roc"
      ],
      [
        "Ġord",
        "ers"
      ],
      [
        "Ġund",
        "er"
      ],
      [
        "Ġpack",
        "age"
      ],
      [
        "ĠList",
        "ed"
      ],
      [
        "Ġgroc",
        "ery"
      ],
      [
        "i",
        "l"
      ],
      [
        "Ġ",
        "c"
      ],
      [
        "Ġ",
        "F"
      ],
      [
        "l",
        "e"
      ],
      [
        "Ġ",
        "re"
      ],
      [
        "i",
        "ent"
      ],
      [
        "u",
        "r"
      ],
      [
        "Ġ",
        "P"
      ],
      [
        "ĠS",
        "al"
      ],
      [
        "Ġ",
        "b"
      ],
      [
        "ĠSal",
        "t"
      ],
      [
        "o",
        "n"
      ],
      [
        "a",
        "n"
      ],
      [
        "Ġo",
        "z"
      ],
      [
        "i",
        "t"
      ],
      [
        "c",
        "e"
      ],
      [
        "Ġ",
        "s"
      ],
      [
        "Ġ",
        "t"
      ],
      [
        "m",
        "b"
      ],
      [
        "Ġa",
        "mb"
      ],
      [
        "Ġamb",
        "ient"
      ],
      [
        "h",
        "e"
      ],
      [
        "l",
        "a"
      ],
      [
        "e",
        "a"
      ],
      [
        "h",
        "o"
      ],
      [
        "Ġ",
        "1"
      ],
      [
        "Ġ",
        "M"
      ],
      [
        "Ġ",
        "W"
      ],
      [
        "l",
        "y"
      ],
      [
        "r",
        "i"
      ],
      [
        "Ġ",
        "G"
      ],
      [
        "Ġ",
        "B"
      ],
      [
        "a",
        "m"
      ],
      [
        "Ġ",
        "R"
      ],
      [
        "Ġ",
        "l"
      ],
      [
        "r",
        "a"
      ],
      [
        "a",
        "b"
      ],
      [
        "e",
        "t"
      ],
      [
        "u",
        "l"
      ],
      [
        "o",
        "m"
      ],
      [
        "r",
        "y"
      ],
      [
        "i",
        "s"
      ],
      [
        "Ġ",
        "m"
      ],
      [
        "ĠF",
        "re"
      ],
      [
        "at",
        "ed"
      ],
      [
        "o",
        "d"
      ],
      [
        "in",
        "g"
      ],
      [
        "Ġ",
        "O"
      ],
      [
        "Ġ",
        "A"
      ],
      [
        "at",
        "er"
      ],
      [
        "s",
        "h"
      ],
      [
        "f",
        "ri"
      ],
      [
        "g",
        "er"
      ],
      [
        "Ġre",
        "fri"
      ],
      [
        "ger",
        "ated"
      ],
      [
        "Ġrefri",
        "gerated"
      ],
      [
        "Ġf",
        "ro"
      ],
      [
        "ĠP",
        "re"
      ],
      [
        "Ġ",
        "T"
      ],
      [
        "l",
        "d"
      ],
      [
        "Ġc",
        "u"
      ],
      [
        "z",
        "en"
      ],
      [
        "e",
        "s"
      ],
      [
        "i",
        "v"
      ],
      [
        "Ġf",
        "l"
      ],
      [
        "g",
        "r"
      ],
      [
        "Ġ",
        "N"
      ],
      [
        "u",
        "ce"
      ],
      [
        "ed",
        "ient"
      ],
      [
        "Ġin",
        "gr"
      ],
      [
        "edient",
        "s"
      ],
      [
        "Ġingr",
        "edients"
      ],
      [
        "p",
        "ar"
      ],
      [
        "st",
        "om"
      ],
      [
        "Ġcu",
        "stom"
      ],
      [
        "Ġt",
        "he"
      ],
      [
        "Ġ",
        "H"
      ],
      [
        "an",
        "t"
      ],
      [
        "b",
        "ack"
      ],
      [
        "e",
        "ed"
      ],
      [
        "eed",
        "back"
      ],
      [
        "v",
        "or"
      ],
      [
        "Ġf",
        "la"
      ],
      [
        "at",
        "ur"
      ],
      [
        "ĠN",
        "atur"
      ],
      [
        "vor",
        "s"
      ],
      [
        "Ġfla",
        "vors"
      ],
      [
        "ĠNatur",
        "al"
      ],
      [
        "o",
        "od"
      ],
      [
        "il",
        "y"
      ],
      [
        "Ġb",
        "y"
      ],
      [
        "Ġfro",
        "zen"
      ],
      [
        "e",
        "at"
      ],
      [
        "Ġp",
        "ro"
      ],
      [
        "a",
        "k"
      ],
      [
        "ab",
        "le"
      ],
      [
        "re",
        "am"
      ],
      [
        "ĠPre",
        "par"
      ],
      [
        "ĠPrepar",
        "ed"
      ],
      [
        "d",
        "uce"
      ],
      [
        "Ġpro",
        "duce"
      ],
      [
        "ar",
        "t"
      ],
      [
        "u",
        "t"
      ],
      [
        "u",
        "re"
      ],
      [
        "a",
        "re"
      ],
      [
        "ĠC",
        "ream"
      ],
      [
        "ant",
        "ry"
      ],
      [
        "er",
        "ed"
      ],
      [
        "c",
        "h"
      ],
      [
        "Ġo",
        "f"
      ],
      [
        "k",
        "et"
      ],
      [
        "Ġf",
        "eedback"
      ],
      [
        "u",
        "g"
      ],
      [
        "Ġ1",
        "2"
      ],
      [
        "Ġ",
        "it"
      ],
      [
        "u",
        "s"
      ],
      [
        "Ġ",
        "d"
      ],
      [
        "ĠS",
        "t"
      ],
      [
        "a",
        "s"
      ],
      [
        "p",
        "p"
      ],
      [
        "h",
        "i"
      ],
      [
        "ĠS",
        "ea"
      ],
      [
        "us",
        "e"
      ],
      [
        "i",
        "ce"
      ],
      [
        "ra",
        "in"
      ],
      [
        "o",
        "ur"
      ],
      [
        "Ġl",
        "b"
      ],
      [
        "Ġ",
        "3"
      ],
      [
        "Ġt",
        "o"
      ],
      [
        "ul",
        "t"
      ],
      [
        "Ġ",
        "w"
      ],
      [
        "s",
        "s"
      ],
      [
        "ĠC",
        "o"
      ],
      [
        "ĠG",
        "rain"
      ],
      [
        "Ġ",
        "2"
      ],
      [
        "ĠFre",
        "e"
      ],
      [
        "g",
        "ul"
      ],
      [
        "Ġre",
        "gul"
      ],
      [
        "Ġregul",
        "ar"
      ],
      [
        "i",
        "m"
      ],
      [
        "it",
        "ed"
      ],
      [
        "im",
        "ited"
      ],
      [
        "ĠF",
        "am"
      ],
      [
        "ĠFam",
        "ily"
      ],
      [
        "Ġcustom",
        "ers"
      ],
      [
        "ho",
        "le"
      ],
      [
        "i",
        "c"
      ],
      [
        "n",
        "e"
      ],
      [
        "ent",
        "ly"
      ],
      [
        "Ġs",
        "ho"
      ],
      [
        "pp",
        "ers"
      ],
      [
        "Ġsho",
        "ppers"
      ],
      [
        "Ġc",
        "t"
      ],
      [
        "il",
        "k"
      ],
      [
        "o",
        "g"
      ],
      [
        "ĠC",
        "ult"
      ],
      [
        "Ġp",
        "antry"
      ],
      [
        "p",
        "s"
      ],
      [
        "Ġb",
        "e"
      ],
      [
        "ĠS",
        "p"
      ],
      [
        "e",
        "m"
      ],
      [
        "ĠS",
        "ug"
      ],
      [
        "ĠSug",
        "ar"
      ],
      [
        "ar",
        "ket"
      ],
      [
        "ĠFre",
        "sh"
      ],
      [
        "or",
        "t"
      ],
      [
        "g",
        "h"
      ],
      [
        "ĠW",
        "hole"
      ],
      [
        "u",
        "m"
      ],
      [
        "u",
        "n"
      ],
      [
        "Ġw",
        "ater"
      ],
      [
        "on",
        "s"
      ],
      [
        "i",
        "z"
      ],
      [
        "i",
        "e"
      ],
      [
        "ho",
        "ld"
      ],
      [
        "use",
        "hold"
      ],
      [
        "l",
        "l"
      ],
      [
        "ĠM",
        "ilk"
      ],
      [
        "ĠH",
        "o"
      ],
      [
        "ĠR",
        "e"
      ],
      [
        "ers",
        "on"
      ],
      [
        "Ġc",
        "are"
      ],
      [
        "erson",
        "al"
      ],
      [
        "a",
        "st"
      ],
      [
        "w",
        "e"
      ],
      [
        "Ġ",
        "Y"
      ],
      [
        "ĠF",
        "il"
      ],
      [
        "ĠW",
        "ater"
      ],
      [
        "u",
        "p"
      ],
      [
        "Ġ3",
        "2"
      ],
      [
        "r",
        "g"
      ],
      [
        "f",
        "ood"
      ],
      [
        "ice",
        "s"
      ],
      [
        "k",
        "ed"
      ],
      [
        "he",
        "at"
      ],
      [
        "ĠS",
        "iz"
      ],
      [
        "ĠSiz",
        "e"
      ],
      [
        "Ġ1",
        "6"
      ],
      [
        "ĠL",
        "o"
      ],
      [
        "we",
        "et"
      ],
      [
        "f",
        "t"
      ],
      [
        "t",
        "ered"
      ],
      [
        "v",
        "er"
      ],
      [
        "age",
        "s"
      ],
      [
        "Ġbe",
        "ver"
      ],
      [
        "ĠFil",
        "tered"
      ],
      [
        "Ġbever",
        "ages"
      ],
      [
        "i",
        "um"
      ],
      [
        "Ġa",
        "s"
      ],
      [
        "Ġp",
        "art"
      ],
      [
        "Ġfl",
        "our"
      ],
      [
        "s",
        "on"
      ],
      [
        "ĠSea",
        "son"
      ],
      [
        "le",
        "ss"
      ],
      [
        "re",
        "en"
      ],
      [
        "ord",
        "ered"
      ],
      [
        "Ġre",
        "ordered"
      ],
      [
        "ĠW",
        "heat"
      ],
      [
        "a",
        "f"
      ],
      [
        "iv",
        "e"
      ],
      [
        "Ġcustom",
        "er"
      ],
      [
        "a",
        "i"
      ],
      [
        "ure",
        "s"
      ],
      [
        "Ġd",
        "ai"
      ],
      [
        "ĠCult",
        "ures"
      ],
      [
        "Ġdai",
        "ry"
      ],
      [
        "a",
        "il"
      ],
      [
        "v",
        "ail"
      ],
      [
        "p",
        "ur"
      ],
      [
        "q",
        "u"
      ],
      [
        "Ġa",
        "is"
      ],
      [
        "ce",
        "iv"
      ],
      [
        "ĠO",
        "ne"
      ],
      [
        "ch",
        "as"
      ],
      [
        "Ġit",
        "s"
      ],
      [
        "Ġit",
        "em"
      ],
      [
        "pur",
        "chas"
      ],
      [
        "Ġais",
        "le"
      ],
      [
        "Ġitem",
        "s"
      ],
      [
        "purchas",
        "ed"
      ],
      [
        "d",
        "d"
      ],
      [
        "Ġa",
        "dd"
      ],
      [
        "al",
        "og"
      ],
      [
        "at",
        "alog"
      ],
      [
        "Ġc",
        "atalog"
      ],
      [
        "ĠCream",
        "y"
      ],
      [
        "Ġl",
        "imited"
      ],
      [
        "it",
        "y"
      ],
      [
        "Ġb",
        "ak"
      ],
      [
        "ea",
        "st"
      ],
      [
        "ĠY",
        "east"
      ],
      [
        "Ġbak",
        "ery"
      ],
      [
        "ons",
        "ist"
      ],
      [
        "D",
        "a"
      ],
      [
        "Da",
        "ily"
      ],
      [
        "at",
        "o"
      ],
      [
        "Ġs",
        "o"
      ],
      [
        "a",
        "p"
      ],
      [
        "Ġp",
        "o"
      ],
      [
        "ĠO",
        "il"
      ],
      [
        "ĠSp",
        "ices"
      ],
      [
        "l",
        "u"
      ],
      [
        "lu",
        "e"
      ],
      [
        "Ġ",
        "V"
      ],
      [
        "ĠLo",
        "w"
      ],
      [
        "i",
        "x"
      ],
      [
        "ĠS",
        "o"
      ],
      [
        "n",
        "er"
      ],
      [
        "Ġ",
        "6"
      ],
      [
        "en",
        "ed"
      ],
      [
        "weet",
        "ened"
      ],
      [
        "hi",
        "ps"
      ],
      [
        "a",
        "c"
      ],
      [
        "he",
        "es"
      ],
      [
        "hees",
        "e"
      ],
      [
        "n",
        "ack"
      ],
      [
        "nack",
        "s"
      ],
      [
        "Ġ",
        "8"
      ],
      [
        "ĠM",
        "eat"
      ],
      [
        "Ġm",
        "eat"
      ],
      [
        "a",
        "d"
      ],
      [
        "i",
        "on"
      ],
      [
        "Ġs",
        "nacks"
      ],
      [
        "ĠT",
        "o"
      ],
      [
        "v",
        "e"
      ],
      [
        "or",
        "k"
      ],
      [
        "ĠGrain",
        "s"
      ],
      [
        "ĠSeason",
        "ing"
      ],
      [
        "i",
        "al"
      ],
      [
        "o",
        "ld"
      ],
      [
        "il",
        "la"
      ],
      [
        "ab",
        "y"
      ],
      [
        "F",
        "re"
      ],
      [
        "F",
        "ie"
      ],
      [
        "sh",
        "Fie"
      ],
      [
        "Fre",
        "shFie"
      ],
      [
        "FreshFie",
        "ld"
      ],
      [
        "a",
        "sh"
      ],
      [
        "o",
        "l"
      ],
      [
        "s",
        "it"
      ],
      [
        "sit",
        "ive"
      ],
      [
        "i",
        "gh"
      ],
      [
        "t",
        "ly"
      ],
      [
        "ĠL",
        "igh"
      ],
      [
        "ĠLigh",
        "tly"
      ],
      [
        "ĠM",
        "in"
      ],
      [
        "ix",
        "ed"
      ],
      [
        "B",
        "lue"
      ],
      [
        "ĠC",
        "art"
      ],
      [
        "M",
        "arket"
      ],
      [
        "ĠP",
        "antry"
      ],
      [
        "ĠRe",
        "c"
      ],
      [
        "ĠT",
        "able"
      ],
      [
        "P",
        "ure"
      ],
      [
        "ĠG",
        "ood"
      ],
      [
        "Pure",
        "ly"
      ],
      [
        "ĠP",
        "ack"
      ],
      [
        "H",
        "ar"
      ],
      [
        "Ġ",
        "E"
      ],
      [
        "ĠL",
        "an"
      ],
      [
        "ve",
        "st"
      ],
      [
        "Har",
        "vest"
      ],
      [
        "ĠLan",
        "e"
      ],
      [
        "C",
        "or"
      ],
      [
        "ĠM",
        "arket"
      ],
      [
        "Cor",
        "ner"
      ],
      [
        "O",
        "ak"
      ],
      [
        "a",
        "nd"
      ],
      [
        "Ġ",
        "&"
      ],
      [
        "U",
        "n"
      ],
      [
        "Ġ",
        "Un"
      ],
      [
        "ĠUn",
        "s"
      ],
      [
        "N",
        "ort"
      ],
      [
        "al",
        "l"
      ],
      [
        "ĠF",
        "ood"
      ],
      [
        "ĠSt",
        "ar"
      ],
      [
        "Nort",
        "h"
      ],
      [
        "ĠFood",
        "s"
      ],
      [
        "R",
        "iv"
      ],
      [
        "b",
        "end"
      ],
      [
        "er",
        "bend"
      ],
      [
        "Ġm",
        "o"
      ],
      [
        "Riv",
        "erbend"
      ],
      [
        "i",
        "ck"
      ],
      [
        "S",
        "un"
      ],
      [
        "n",
        "y"
      ],
      [
        "ĠB",
        "as"
      ],
      [
        "Sun",
        "ny"
      ],
      [
        "ĠBas",
        "ket"
      ],
      [
        "G",
        "old"
      ],
      [
        "c",
        "re"
      ],
      [
        "ĠA",
        "cre"
      ],
      [
        "Gold",
        "en"
      ],
      [
        "m",
        "u"
      ],
      [
        "Ġ",
        "D"
      ],
      [
        "mu",
        "la"
      ],
      [
        "e",
        "an"
      ],
      [
        "Ġp",
        "ast"
      ],
      [
        "o",
        "ck"
      ],
      [
        "ĠC",
        "la"
      ],
      [
        "b",
        "er"
      ],
      [
        "f",
        "e"
      ],
      [
        "V",
        "al"
      ],
      [
        "c",
        "t"
      ],
      [
        "e",
        "le"
      ],
      [
        "ĠS",
        "ele"
      ],
      [
        "le",
        "y"
      ],
      [
        "Val",
        "ley"
      ],
      [
        "ĠSele",
        "ct"
      ],
      [
        "hi",
        "gh"
      ],
      [
        "Ġ",
        "ho"
      ],
      [
        "Ġm",
        "ater"
      ],
      [
        "ĠHo",
        "usehold"
      ],
      [
        "ial",
        "s"
      ],
      [
        "Ġho",
        "usehold"
      ],
      [
        "Ġmater",
        "ials"
      ],
      [
        "en",
        "er"
      ],
      [
        "Ġfor",
        "mula"
      ],
      [
        "t",
        "t"
      ],
      [
        "G",
        "reen"
      ],
      [
        "ĠF",
        "ork"
      ],
      [
        "it",
        "ion"
      ],
      [
        "p",
        "e"
      ],
      [
        "Ġc",
        "o"
      ],
      [
        "Ġm",
        "ixed"
      ],
      [
        "Ġd",
        "e"
      ],
      [
        "i",
        "rg"
      ],
      [
        "t",
        "ra"
      ],
      [
        "x",
        "tra"
      ],
      [
        "Ġp",
        "ersonal"
      ],
      [
        "ĠP",
        "ersonal"
      ],
      [
        "ĠV",
        "irg"
      ],
      [
        "ĠE",
        "xtra"
      ],
      [
        "ĠVirg",
        "in"
      ],
      [
        "d",
        "y"
      ],
      [
        "ea",
        "dy"
      ],
      [
        "ĠR",
        "eady"
      ],
      [
        "Ġ2",
        "4"
      ],
      [
        "C",
        "ed"
      ],
      [
        "ĠHo",
        "use"
      ],
      [
        "Ced",
        "ar"
      ],
      [
        "ss",
        "ic"
      ],
      [
        "ĠCla",
        "ssic"
      ],
      [
        "Ġs",
        "ea"
      ],
      [
        "ĠSea",
        "food"
      ],
      [
        "Ġsea",
        "food"
      ],
      [
        "ra",
        "is"
      ],
      [
        "ĠS",
        "od"
      ],
      [
        "ĠSod",
        "ium"
      ],
      [
        "Ġf",
        "ar"
      ],
      [
        "ĠL",
        "imited"
      ],
      [
        "c",
        "c"
      ],
      [
        "p",
        "end"
      ],
      [
        "v",
        "ie"
      ],
      [
        "w",
        "s"
      ],
      [
        "Ġa",
        "cc"
      ],
      [
        "Ġp",
        "ick"
      ],
      [
        "ord",
        "ing"
      ],
      [
        "Ġre",
        "vie"
      ],
      [
        "Ġde",
        "pend"
      ],
      [
        "Ġacc",
        "ording"
      ],
      [
        "Ġrevie",
        "ws"
      ],
      [
        "Ġdepend",
        "able"
      ],
      [
        "Ġ",
        "line"
      ],
      [
        "ĠSt",
        "ock"
      ],
      [
        "Ġline",
        "up"
      ],
      [
        "ĠStock",
        "ed"
      ],
      [
        "ĠW",
        "ash"
      ],
      [
        "ĠSo",
        "ft"
      ],
      [
        "an",
        "ic"
      ],
      [
        "om",
        "ato"
      ],
      [
        "ĠO",
        "rg"
      ],
      [
        "ĠOrg",
        "anic"
      ],
      [
        "er",
        "ing"
      ],
      [
        "ar",
        "d"
      ],
      [
        "Ġst",
        "and"
      ],
      [
        "Ġord",
        "ering"
      ],
      [
        "ĠA",
        "vail"
      ],
      [
        "Ġstand",
        "ard"
      ],
      [
        "ĠAvail",
        "able"
      ],
      [
        "a",
        "g"
      ],
      [
        "ĠSt",
        "ea"
      ],
      [
        "c",
        "ent"
      ],
      [
        "v",
        "ent"
      ],
      [
        "or",
        "y"
      ],
      [
        "Ġin",
        "vent"
      ],
      [
        "ĠS",
        "hips"
      ],
      [
        "Ġinvent",
        "ory"
      ],
      [
        "n",
        "ing"
      ],
      [
        "t",
        "ur"
      ],
      [
        "Ġre",
        "tur"
      ],
      [
        "ĠFre",
        "qu"
      ],
      [
        "Ġretur",
        "ning"
      ],
      [
        "ĠFrequ",
        "ently"
      ],
      [
        "l",
        "ut"
      ],
      [
        "ĠG",
        "lut"
      ],
      [
        "ĠGlut",
        "en"
      ],
      [
        "ĠR",
        "are"
      ],
      [
        "ĠRare",
        "ly"
      ],
      [
        "m",
        "ium"
      ],
      [
        "ĠPre",
        "mium"
      ],
      [
        "Ġ",
        "less"
      ],
      [
        "re",
        "purchased"
      ],
      [
        "Ġfro",
        "m"
      ],
      [
        "ĠRe",
        "ceiv"
      ],
      [
        "ĠReceiv",
        "ed"
      ],
      [
        "Ġs",
        "p"
      ],
      [
        "w",
        "er"
      ],
      [
        "Ġ",
        "ne"
      ],
      [
        "Ġadd",
        "ition"
      ],
      [
        "Ġne",
        "wer"
      ],
      [
        "ĠS",
        "m"
      ],
      [
        "al",
        "ly"
      ],
      [
        "ĠC",
        "r"
      ],
      [
        "Ġre",
        "ceiv"
      ],
      [
        "ĠG",
        "ener"
      ],
      [
        "Ġpo",
        "sitive"
      ],
      [
        "Ġreceiv",
        "es"
      ],
      [
        "ĠGener",
        "ally"
      ],
      [
        "h",
        "is"
      ],
      [
        "Ġ",
        "is"
      ],
      [
        "ist",
        "ing"
      ],
      [
        "Ġst",
        "il"
      ],
      [
        "ĠF",
        "eedback"
      ],
      [
        "Ġt",
        "his"
      ],
      [
        "Ġl",
        "isting"
      ],
      [
        "Ġstil",
        "l"
      ],
      [
        "Ġre",
        "purchased"
      ],
      [
        "Ġmo",
        "st"
      ],
      [
        "ck",
        "en"
      ],
      [
        "hi",
        "cken"
      ],
      [
        "Ġadd",
        "ed"
      ],
      [
        "ĠRec",
        "ently"
      ],
      [
        "ĠWash",
        "ed"
      ],
      [
        "ĠS",
        "l"
      ],
      [
        "Ġ",
        "qu"
      ],
      [
        "Ġ",
        "high"
      ],
      [
        "Ġf",
        "ut"
      ],
      [
        "Ġa",
        "vail"
      ],
      [
        "al",
        "ity"
      ],
      [
        "ar",
        "ked"
      ],
      [
        "il",
        "ity"
      ],
      [
        "Ġc",
        "onsist"
      ],
      [
        "ĠM",
        "arked"
      ],
      [
        "ĠR",
        "ated"
      ],
      [
        "ab",
        "ility"
      ],
      [
        "ll",
        "s"
      ],
      [
        "Ġqu",
        "ality"
      ],
      [
        "Ġhigh",
        "ly"
      ],
      [
        "Ġfut",
        "ure"
      ],
      [
        "Ġavail",
        "ability"
      ],
      [
        "Ġconsist",
        "ent"
      ],
      [
        "ĠMin",
        "i"
      ],
      [
        "c",
        "om"
      ],
      [
        "m",
        "ended"
      ],
      [
        "p",
        "eat"
      ],
      [
        "Ġre",
        "com"
      ],
      [
        "Ġre",
        "peat"
      ],
      [
        "ĠO",
        "ft"
      ],
      [
        "Ġrecom",
        "mended"
      ],
      [
        "ĠOft",
        "en"
      ],
      [
        "on",
        "e"
      ],
      [
        "Ġp",
        "rais"
      ],
      [
        "ĠC",
        "onsist"
      ],
      [
        "Ġprais",
        "ed"
      ],
      [
        "ĠConsist",
        "ently"
      ],
      [
        "e",
        "ll"
      ],
      [
        "i",
        "ked"
      ],
      [
        "ĠW",
        "ell"
      ],
      [
        "Ġl",
        "iked"
      ],
      [
        "k",
        "in"
      ],
      [
        "ĠS",
        "kin"
      ],
      [
        "ĠC",
        "af"
      ],
      [
        "ur",
        "t"
      ],
      [
        "og",
        "urt"
      ],
      [
        "fe",
        "ine"
      ],
      [
        "ĠCaf",
        "feine"
      ],
      [
        "ĠP",
        "ul"
      ],
      [
        "ĠPul",
        "p"
      ],
      [
        "Z",
        "er"
      ],
      [
        "t",
        "er"
      ],
      [
        "Ġ",
        "Zer"
      ],
      [
        "ut",
        "ter"
      ],
      [
        "ĠZer",
        "o"
      ],
      [
        "l",
        "ed"
      ],
      [
        "o",
        "c"
      ],
      [
        "et",
        "s"
      ],
      [
        "ug",
        "h"
      ],
      [
        "o",
        "t"
      ],
      [
        "ol",
        "i"
      ],
      [
        "ĠUns",
        "weetened"
      ],
      [
        "u",
        "ice"
      ],
      [
        "p",
        "y"
      ],
      [
        "s",
        "py"
      ],
      [
        "ĠC",
        "ri"
      ],
      [
        "ĠCri",
        "spy"
      ],
      [
        "e",
        "e"
      ],
      [
        "le",
        "s"
      ],
      [
        "ber",
        "ry"
      ],
      [
        "i",
        "pe"
      ],
      [
        "ĠS",
        "weetened"
      ],
      [
        "at",
        "ch"
      ],
      [
        "ur",
        "ed"
      ],
      [
        "ĠB",
        "atch"
      ],
      [
        "ĠR",
        "ipe"
      ],
      [
        "ĠCult",
        "ured"
      ],
      [
        "ĠSm",
        "all"
      ],
      [
        "ĠS",
        "our"
      ],
      [
        "Ġb",
        "re"
      ],
      [
        "ĠB",
        "re"
      ],
      [
        "ĠC",
        "heese"
      ],
      [
        "Ġc",
        "heese"
      ],
      [
        "ĠSalt",
        "ed"
      ],
      [
        "a",
        "ce"
      ],
      [
        "f",
        "ace"
      ],
      [
        "ur",
        "face"
      ],
      [
        "ge",
        "t"
      ],
      [
        "ĠL",
        "em"
      ],
      [
        "ĠLem",
        "on"
      ],
      [
        "an",
        "illa"
      ],
      [
        "r",
        "t"
      ],
      [
        "is",
        "an"
      ],
      [
        "ĠA",
        "rt"
      ],
      [
        "ĠArt",
        "isan"
      ],
      [
        "m",
        "able"
      ],
      [
        "ĠStea",
        "mable"
      ],
      [
        "a",
        "ch"
      ],
      [
        "in",
        "ach"
      ],
      [
        "ic",
        "ed"
      ],
      [
        "ĠSl",
        "iced"
      ],
      [
        "o",
        "k"
      ],
      [
        "m",
        "on"
      ],
      [
        "Ġb",
        "aby"
      ],
      [
        "ĠB",
        "aby"
      ],
      [
        "o",
        "s"
      ],
      [
        "ĠH",
        "eat"
      ],
      [
        "r",
        "an"
      ],
      [
        "Ġ",
        "ro"
      ],
      [
        "ĠB",
        "ak"
      ],
      [
        "ĠBak",
        "ed"
      ],
      [
        "Ġ1",
        "5"
      ],
      [
        "ort",
        "illa"
      ],
      [
        "ĠS",
        "urface"
      ],
      [
        "ĠF",
        "at"
      ],
      [
        "m",
        "o"
      ],
      [
        "al",
        "f"
      ],
      [
        "ent",
        "le"
      ],
      [
        "Ġs",
        "al"
      ],
      [
        "ĠG",
        "entle"
      ],
      [
        "e",
        "y"
      ],
      [
        "k",
        "ey"
      ],
      [
        "Ġ",
        "h"
      ],
      [
        "ur",
        "key"
      ],
      [
        "is",
        "s"
      ],
      [
        "he",
        "lls"
      ],
      [
        "ch",
        "y"
      ],
      [
        "un",
        "chy"
      ],
      [
        "ac",
        "o"
      ],
      [
        "ĠCr",
        "unchy"
      ],
      [
        "at",
        "s"
      ],
      [
        "ll",
        "ed"
      ],
      [
        "l",
        "s"
      ],
      [
        "an",
        "an"
      ],
      [
        "ĠB",
        "one"
      ],
      [
        "ĠCo",
        "ok"
      ],
      [
        "ĠBone",
        "less"
      ],
      [
        "l",
        "ive"
      ],
      [
        "on",
        "g"
      ],
      [
        "ro",
        "und"
      ],
      [
        "ro",
        "zen"
      ],
      [
        "ĠF",
        "rozen"
      ],
      [
        "ĠM",
        "ult"
      ],
      [
        "ĠMult",
        "i"
      ],
      [
        "ĠSeason",
        "ed"
      ],
      [
        "re",
        "e"
      ],
      [
        "ĠP",
        "art"
      ],
      [
        "ĠPart",
        "y"
      ],
      [
        "Ġ6",
        "4"
      ],
      [
        "ĠS",
        "cent"
      ],
      [
        "Ġ2",
        "0"
      ],
      [
        "l",
        "ack"
      ],
      [
        "d",
        "r"
      ],
      [
        "y",
        "dr"
      ],
      [
        "at",
        "ing"
      ],
      [
        "Ġt",
        "omato"
      ],
      [
        "ĠT",
        "omato"
      ],
      [
        "ĠH",
        "ydr"
      ],
      [
        "ĠHydr",
        "ating"
      ],
      [
        "r",
        "up"
      ],
      [
        "y",
        "rup"
      ],
      [
        "he",
        "tt"
      ],
      [
        "is",
        "h"
      ],
      [
        "ap",
        "le"
      ],
      [
        "ag",
        "s"
      ],
      [
        "ag",
        "hett"
      ],
      [
        "aghett",
        "i"
      ],
      [
        "a",
        "uce"
      ],
      [
        "ĠL",
        "ean"
      ],
      [
        "c",
        "u"
      ],
      [
        "mb",
        "ers"
      ],
      [
        "pp",
        "les"
      ],
      [
        "cu",
        "mbers"
      ],
      [
        "Ġ",
        "Daily"
      ],
      [
        "ĠC",
        "are"
      ],
      [
        "ato",
        "es"
      ],
      [
        "ean",
        "ut"
      ],
      [
        "Ġ",
        "I"
      ],
      [
        "ĠS",
        "h"
      ],
      [
        "Ġs",
        "h"
      ],
      [
        "ĠUns",
        "cent"
      ],
      [
        "ĠUnscent",
        "ed"
      ],
      [
        "a",
        "ine"
      ],
      [
        "d",
        "ar"
      ],
      [
        "h",
        "ed"
      ],
      [
        "l",
        "mo"
      ],
      [
        "ar",
        "p"
      ],
      [
        "ĠC",
        "u"
      ],
      [
        "ĠC",
        "hicken"
      ],
      [
        "Ġc",
        "hicken"
      ],
      [
        "art",
        "s"
      ],
      [
        "ad",
        "e"
      ],
      [
        "hed",
        "dar"
      ],
      [
        "lmo",
        "nd"
      ],
      [
        "tt",
        "age"
      ],
      [
        "anan",
        "as"
      ],
      [
        "ĠR",
        "o"
      ],
      [
        "v",
        "y"
      ],
      [
        "ea",
        "vy"
      ],
      [
        "ĠH",
        "eavy"
      ],
      [
        "ut",
        "y"
      ],
      [
        "ĠD",
        "uty"
      ],
      [
        "c",
        "oli"
      ],
      [
        "or",
        "ets"
      ],
      [
        "roc",
        "coli"
      ],
      [
        "ap",
        "er"
      ],
      [
        "ĠMin",
        "t"
      ],
      [
        "ĠSkin",
        "less"
      ],
      [
        "r",
        "in"
      ],
      [
        "Ġg",
        "al"
      ],
      [
        "ant",
        "s"
      ],
      [
        "ort",
        "s"
      ],
      [
        "rin",
        "k"
      ],
      [
        "ĠS",
        "en"
      ],
      [
        "ĠSen",
        "sitive"
      ],
      [
        "Ġ1",
        "0"
      ],
      [
        "ak",
        "es"
      ],
      [
        "y",
        "ogurt"
      ]
    ]
  }
}