{
  "version": "1.0",
  "truncation": null,
  "padding": null,
  "added_tokens": [
    {
      "id": 0,
      "content": "[PAD]",
      "single_word": false,
      "lstrip": false,
      "rstrip": false,
      "normalized": false,
      "special": true
    },
    {
      "id": 1,
      "content": "[UNK]",
      "single_word": false,
      "lstrip": false,
      "rstrip": false,
      "normalized": false,
      "special": true
    },
    {
      "id": 2,
      "content": "[CLS]",
      "single_word": false,
      "lstrip": false,
      "rstrip": false,
      "normalized": false,
      "special": true
    },
    {
      "id": 3,
      "content": "[SEP]",
      "single_word": false,
      "lstrip": false,
      "rstrip": false,
      "normalized": false,
      "special": true
    },
    {
      "id": 4,
      "content": "[MASK]",
      "single_word": false,
      "lstrip": false,
      "rstrip": false,
      "normalized": false,
      "special": true
    }
  ],
  "normalizer": null,
  "pre_tokenizer": {
    "type": "ByteLevel",
    "add_prefix_space": false,
    "trim_offsets": true,
    "use_regex": true
  },
  "post_processor": {
    "type": "TemplateProcessing",
    "single": [
      {
        "SpecialToken": {
          "id": "[CLS]",
          "type_id": 0
        }
      },
      {
        "Sequence": {
          "id": "A",
          "type_id": 0
        }
      },
      {
        "SpecialToken": {
          "id": "[SEP]",
          "type_id": 0
        }
      }
    ],
    "pair": [
      {
        "SpecialToken": {
          "id": "[CLS]",
          "type_id": 0
        }
      },
      {
        "Sequence": {
          "id": "A",
          "type_id": 0
        }
      },
      {
        "SpecialToken": {
          "id": "[SEP]",
          "type_id": 0
        }
      },
      {
        "Sequence": {
          "id": "B",
          "type_id": 0
        }
      },
      {
        "SpecialToken": {
          "id": "[SEP]",
          "type_id": 0
        }
      }
    ],
    "special_tokens": {
      "[CLS]": {
        "id": "[CLS]",
        "ids": [
          2
        ],
        "tokens": [
          "[CLS]"
        ]
      },
      "[SEP]": {
        "id": "[SEP]",
        "ids": [
          3
        ],
        "tokens": [
          "[SEP]"
        ]
      }
    }
  },
  "decoder": {
    "type": "ByteLevel",
    "add_prefix_space": true,
    "trim_offsets": true,
    "use_regex": true
  },
  "model": {
    "type": "BPE",
    "dropout": null,
    "unk_token": "[UNK]",
    "continuing_subword_prefix": null,
    "end_of_word_suffix": null,
    "fuse_unk": false,
    "byte_fallback": false,
    "ignore_merges": false,
    "vocab": {
      "[PAD]": 0,
      "[UNK]": 1,
      "[CLS]": 2,
      "[SEP]": 3,
      "[MASK]": 4,
      "!": 5,
      "\"": 6,
      "#": 7,
      "$": 8,
      "%": 9,
      "&": 10,
      "'": 11,
      "(": 12,
      ")": 13,
      "*": 14,
      "+": 15,
      ",": 16,
      "-": 17,
      ".": 18,
      "/": 19,
      "0": 20,
      "1": 21,
      "2": 22,
      "3": 23,
      "4": 24,
      "5": 25,
      "6": 26,
      "7": 27,
      "8": 28,
      "9": 29,
      ":": 30,
      ";": 31,
      "<": 32,
      "=": 33,
      ">": 34,
      "?": 35,
      "@": 36,
      "A": 37,
      "B": 38,
      "C": 39,
      "D": 40,
      "E": 41,
      "F": 42,
      "G": 43,
      "H": 44,
      "I": 45,
      "J": 46,
      "K": 47,
      "L": 48,
      "M": 49,
      "N": 50,
      "O": 51,
      "P": 52,
      "Q": 53,
      "R": 54,
      "S": 55,
      "T": 56,
      "U": 57,
      "V": 58,
      "W": 59,
      "X": 60,
      "Y": 61,
      "Z": 62,
      "[": 63,
      "\\": 64,
      "]": 65,
      "^": 66,
      "_": 67,
      "`": 68,
      "a": 69,
      "b": 70,
      "c": 71,
      "d": 72,
      "e": 73,
      "f": 74,
      "g": 75,
      "h": 76,
      "i": 77,
      "j": 78,
      "k": 79,
      "l": 80,
      "m": 81,
      "n": 82,
      "o": 83,
      "p": 84,
      "q": 85,
      "r": 86,
      "s": 87,
      "t": 88,
      "u": 89,
      "v": 90,
      "w": 91,
      "x": 92,
      "y": 93,
      "z": 94,
      "{": 95,
      "|": 96,
      "}": 97,
      "~": 98,
      "¡": 99,
      "¢": 100,
      "£": 101,
      "¤": 102,
      "¥": 103,
      "¦": 104,
      "§": 105,
      "¨": 106,
      "©": 107,
      "ª": 108,
      "«": 109,
      "¬": 110,
      "®": 111,
      "¯": 112,
      "°": 113,
      "±": 114,
      "²": 115,
      "³": 116,
      "´": 117,
      "µ": 118,
      "¶": 119,
      "·": 120,
      "¸": 121,
      "¹": 122,
      "º": 123,
      "»": 124,
      "¼": 125,
      "½": 126,
      "¾": 127,
      "¿": 128,
      "À": 129,
      "Á": 130,
      "Â": 131,
      "Ã": 132,
      "Ä": 133,
      "Å": 134,
      "Æ": 135,
      "Ç": 136,
      "È": 137,
      "É": 138,
      "Ê": 139,
      "Ë": 140,
      "Ì": 141,
      "Í": 142,
      "Î": 143,
      "Ï": 144,
      "Ð": 145,
      "Ñ": 146,
      "Ò": 147,
      "Ó": 148,
      "Ô": 149,
      "Õ": 150,
      "Ö": 151,
      "×": 152,
      "Ø": 153,
      "Ù": 154,
      "Ú": 155,
      "Û": 156,
      "Ü": 157,
      "Ý": 158,
      "Þ": 159,
      "ß": 160,
      "à": 161,
      "á": 162,
      "â": 163,
      "ã": 164,
      "ä": 165,
      "å": 166,
      "æ": 167,
      "ç": 168,
      "è": 169,
      "é": 170,
      "ê": 171,
      "ë": 172,
      "ì": 173,
      "í": 174,
      "î": 175,
      "ï": 176,
      "ð": 177,
      "ñ": 178,
      "ò": 179,
      "ó": 180,
      "ô": 181,
      "õ": 182,
      "ö": 183,
      "÷": 184,
      "ø": 185,
      "ù": 186,
      "ú": 187,
      "û": 188,
      "ü": 189,
      "ý": 190,
      "þ": 191,
      "ÿ": 192,
      "Ā": 193,
      "ā": 194,
      "Ă": 195,
      "ă": 196,
      "Ą": 197,
      "ą": 198,
      "Ć": 199,
      "ć": 200,
      "Ĉ": 201,
      "ĉ": 202,
      "Ċ": 203,
      "ċ": 204,
      "Č": 205,
      "č": 206,
      "Ď": 207,
      "ď": 208,
      "Đ": 209,
      "đ": 210,
      "Ē": 211,
      "ē": 212,
      "Ĕ": 213,
      "ĕ": 214,
      "Ė": 215,
      "ė": 216,
      "Ę": 217,
      "ę": 218,
      "Ě": 219,
      "ě": 220,
      "Ĝ": 221,
      "ĝ": 222,
      "Ğ": 223,
      "ğ": 224,
      "Ġ": 225,
      "ġ": 226,
      "Ģ": 227,
      "ģ": 228,
      "Ĥ": 229,
      "ĥ": 230,
      "Ħ": 231,
      "ħ": 232,
      "Ĩ": 233,
      "ĩ": 234,
      "Ī": 235,
      "ī": 236,
      "Ĭ": 237,
      "ĭ": 238,
      "Į": 239,
      "į": 240,
      "İ": 241,
      "ı": 242,
      "Ĳ": 243,
      "ĳ": 244,
      "Ĵ": 245,
      "ĵ": 246,
      "Ķ": 247,
      "ķ": 248,
      "ĸ": 249,
      "Ĺ": 250,
      "ĺ": 251,
      "Ļ": 252,
      "ļ": 253,
      "Ľ": 254,
      "ľ": 255,
      "Ŀ": 256,
      "ŀ": 257,
      "Ł": 258,
      "ł": 259,
      "Ń": 260,
      "Ġ|": 261,
      "er": 262,
      "or": 263,
      "in": 264,
      "en": 265,
      "Ġf": 266,
      "ed": 267,
      "st": 268,
      "ri": 269,
      "on": 270,
      "ge": 271,
      "at": 272,
      "age": 273,
      "il": 274,
      "oz": 275,
      "ti": 276,
      "ter": 277,
      "ilter": 278,
      "re": 279,
      "Ġa": 280,
      "Ġfilter": 281,
      "ce": 282,
      "Ġp": 283,
      "Ġ1": 284,
      "ĠS": 285,
      "Ġin": 286,
      "Ġc": 287,
      "ent": 288,
      "nd": 289,
      "rice": 290,
      "orage": 291,
      "storage": 292,
      "ck": 293,
      "ient": 294,
      "ate": 295,
      "ack": 296,
      "Ġoz": 297,
      "Ġ2": 298,
      "it": 299,
      "gr": 300,
      "ery": 301,
      "of": 302,
      "si": 303,
      "Ġfor": 304,
      "Ġd": 305,
      "un": 306,
      "ig": 307,
      "Ġn": 308,
      "pe": 309,
      "le": 310,
      "tion": 311,
      "sc": 312,
      "me": 313,
      "ory": 314,
      "ty": 315,
      "Ġq": 316,
      "gory": 317,
      "price": 318,
      "Ġx": 319,
      "Ġstorage": 320,
      "Ġpack": 321,
      "ategory": 322,
      "type": 323,
      "Ġpackage": 324,
      "ar": 325,
      "ry": 326,
      "al": 327,
      "ĠF": 328,
      "ĠL": 329,
      "Ġb": 330,
      "ĠP": 331,
      "mb": 332,
      "ĠC": 333,
      "mbient": 334,
      "00": 335,
      "et": 336,
      "ers": 337,
      "try": 338,
      "as": 339,
      "ĠA": 340,
      "Ġ3": 341,
      "am": 342,
      "ra": 343,
      "ĠR": 344,
      "ist": 345,
      "ut": 346,
      "ure": 347,
      "ll": 348,
      "ord": 349,
      "02": 350,
      "ĠList": 351,
      "edient": 352,
      "Ġingr": 353,
      "edients": 354,
      "Ġingredients": 355,
      "end": 356,
      "ine": 357,
      "im": 358,
      "an": 359,
      "igh": 360,
      "line": 361,
      "Ġon": 362,
      "ze": 363,
      "we": 364,
      "ĠAmbient": 365,
      "oc": 366,
      "Ġonline": 367,
      "ĠB": 368,
      "ated": 369,
      "ight": 370,
      "Ġde": 371,
      "ĠSt": 372,
      "Ġnut": 373,
      "Ġord": 374,
      "Ġco": 375,
      "ma": 376,
      "Ġqu": 377,
      "ller": 378,
      "ended": 379,
      "Ġgr": 380,
      "od": 381,
      "und": 382,
      "min": 383,
      "ensi": 384,
      "Ġand": 385,
      "rip": 386,
      "ĠM": 387,
      "amp": 388,
      "Ġti": 389,
      "category": 390,
      "gen": 391,
      "id": 392,
      "tle": 393,
      "tended": 394,
      "Ġ-": 395,
      "Ġun": 396,
      "Ġund": 397,
      "ore": 398,
      "orig": 399,
      "stamp": 400,
      "rition": 401,
      "ons": 402,
      "title": 403,
      "Ġaller": 404,
      "Ġprice": 405,
      "Ġintended": 406,
      "Ġcategory": 407,
      "Ġ202": 408,
      "size": 409,
      "Ġdim": 410,
      "untry": 411,
      "Ġnet": 412,
      "scrip": 413,
      "score": 414,
      "meas": 415,
      "mestamp": 416,
      "Ġbra": 417,
      "ĠListed": 418,
      "weight": 419,
      "ocery": 420,
      "Ġdescrip": 421,
      "Ġnutrition": 422,
      "Ġorders": 423,
      "Ġcountry": 424,
      "max": 425,
      "Ġquery": 426,
      "Ġgrocery": 427,
      "ensions": 428,
      "Ġtimestamp": 429,
      "gens": 430,
      "Ġunit": 431,
      "Ġunder": 432,
      "origin": 433,
      "Ġallergens": 434,
      "Ġdimensions": 435,
      "measure": 436,
      "Ġbrand": 437,
      "Ġdescription": 438,
      "Ġfl": 439,
      "ited": 440,
      "Ġ(": 441,
      "Ġl": 442,
      "ĠRe": 443,
      "fri": 444,
      "ger": 445,
      "friger": 446,
      "frigerated": 447,
      "Ġ12": 448,
      "Un": 449,
      "ĠN": 450,
      "Ġre": 451,
      "Ġ6": 452,
      "ĠG": 453,
      "ĠUn": 454,
      "ur": 455,
      "roz": 456,
      "rozen": 457,
      "ates": 458,
      "ĠStates": 459,
      "ĠUnited": 460,
      "Ġ4": 461,
      "ho": 462,
      "ĠSal": 463,
      "he": 464,
      "ĠSalt": 465,
      "Ġ5": 466,
      "Ġlb": 467,
      "ly": 468,
      "Ġ8": 469,
      "ĠW": 470,
      "Ġ2025": 471,
      "ing": 472,
      "Ġt": 473,
      "Ġs": 474,
      "ĠRefrigerated": 475,
      "Ġct": 476,
      "ĠH": 477,
      "antry": 478,
      "Ġambient": 479,
      "ld": 480,
      "ul": 481,
      "ak": 482,
      "ĠFrozen": 483,
      "001": 484,
      "Ġ16": 485,
      "ab": 486,
      "ood": 487,
      "one": 488,
      "ĠFre": 489,
      "uce": 490,
      "Ġ7": 491,
      "ĠSe": 492,
      "Ġ0": 493,
      "ĠO": 494,
      "rod": 495,
      "roduce": 496,
      "ver": 497,
      "om": 498,
      "se": 499,
      "ĠNone": 500,
      "ĠT": 501,
      "ĠD": 502,
      "ĠPantry": 503,
      "ket": 504,
      "Ġ32": 505,
      "000": 506,
      "are": 507,
      "av": 508,
      "is": 509,
      "use": 510,
      "ĠDa": 511,
      "Ġ2024": 512,
      "avor": 513,
      "back": 514,
      "eed": 515,
      "eedback": 516,
      "Ġ10": 517,
      "af": 518,
      "ever": 519,
      "ages": 520,
      "everages": 521,
      "ĠMar": 522,
      "ily": 523,
      "ater": 524,
      "ouse": 525,
      "Ġ9": 526,
      "ĠHouse": 527,
      "iry": 528,
      "able": 529,
      "ust": 530,
      "ustom": 531,
      "ve": 532,
      "Ġrefrigerated": 533,
      "11": 534,
      "Ġ15": 535,
      "Ġ11": 536,
      "ĠPre": 537,
      "ilk": 538,
      "akery": 539,
      "sh": 540,
      "ĠFresh": 541,
      "07": 542,
      "heat": 543,
      "ĠMarket": 544,
      "08": 545,
      "art": 546,
      "ĠWheat": 547,
      "ĠMilk": 548,
      "09": 549,
      "ie": 550,
      "eat": 551,
      "ĠListing": 552,
      "par": 553,
      "Ġcustom": 554,
      "Ġthe": 555,
      "hold": 556,
      "ular": 557,
      "atur": 558,
      "Ġflavor": 559,
      "ĠNatur": 560,
      "Ġflavors": 561,
      "ĠNatural": 562,
      "10": 563,
      "pp": 564,
      "Ġby": 565,
      "ĠGra": 566,
      "Ġfrozen": 567,
      "ĠV": 568,
      "onal": 569,
      "ersonal": 570,
      "ream": 571,
      "nack": 572,
      "Ġ24": 573,
      "nacks": 574,
      "ice": 575,
      "ĠPrepar": 576,
      "ĠPrepared": 577,
      "12": 578,
      "Ġproduce": 579,
      "ĠProduce": 580,
      "Ġm": 581,
      "ĠGrain": 582,
      "afood": 583,
      "ĠMeat": 584,
      "ĠCream": 585,
      "ĠBeverages": 586,
      "ast": 587,
      "01": 588,
      "03": 589,
      "06": 590,
      "ch": 591,
      "05": 592,
      "ĠCo": 593,
      "ĠSo": 594,
      "Ġof": 595,
      "04": 596,
      "Ġ13": 597,
      "ĠDairy": 598,
      "gular": 599,
      "Ġfeedback": 600,
      "imited": 601,
      "ug": 602,
      "ite": 603,
      "hopp": 604,
      "ently": 605,
      "ort": 606,
      "ĠBakery": 607,
      "ĠHousehold": 608,
      "ĠPersonal": 609,
      "19": 610,
      "and": 611,
      "ĠRi": 612,
      "ĠSp": 613,
      "lu": 614,
      "Ġto": 615,
      "Ġw": 616,
      "ĠSeafood": 617,
      "ĠGre": 618,
      "ad": 619,
      "15": 620,
      "18": 621,
      "ĠDaily": 622,
      "16": 623,
      "Ġ18": 624,
      "21": 625,
      "lue": 626,
      "17": 627,
      "ick": 628,
      "14": 629,
      "13": 630,
      "ĠSnacks": 631,
      "ĠFree": 632,
      "Ġregular": 633,
      "ner": 634,
      "Ġ14": 635,
      "23": 636,
      "ered": 637,
      "ordered": 638,
      "ĠFam": 639,
      "ĠFamily": 640,
      "Ġcustomers": 641,
      "ĠBlue": 642,
      "hole": 643,
      "dd": 644,
      "22": 645,
      "ĠRated": 646,
      "ĠFeedback": 647,
      "Fie": 648,
      "ĠFreshFie": 649,
      "ĠFreshField": 650,
      "les": 651,
      "Ġshopp": 652,
      "Ġshoppers": 653,
      "ĠCare": 654,
      "ĠGreen": 655,
      "og": 656,
      "ĠCul": 657,
      "ĠCult": 658,
      "ow": 659,
      "Ġpantry": 660,
      "ĠCart": 661,
      "Ġst": 662,
      "ork": 663,
      "ĠTable": 664,
      "ĠPure": 665,
      "ĠSug": 666,
      "ĠSugar": 667,
      "up": 668,
      "ĠGood": 669,
      "ĠPurely": 670,
      "arve": 671,
      "ĠLan": 672,
      "ĠHarve": 673,
      "ĠLane": 674,
      "ĠHarvest": 675,
      "orner": 676,
      "ĠCorner": 677,
      "Ġ&": 678,
      "ĠOak": 679,
      "our": 680,
      "ĠFood": 681,
      "ĠStar": 682,
      "ĠNort": 683,
      "ĠFoods": 684,
      "ĠNorth": 685,
      "bend": 686,
      "verbend": 687,
      "ĠRiverbend": 688,
      "ĠWhole": 689,
      "ew": 690,
      "Ġ17": 691,
      "ean": 692,
      "ny": 693,
      "ĠSun": 694,
      "asket": 695,
      "ĠBasket": 696,
      "ĠSunny": 697,
      "cre": 698,
      "old": 699,
      "ĠAcre": 700,
      "ĠGold": 701,
      "ĠGolden": 702,
      "Ġwater": 703,
      "20": 704,
      "ail": 705,
      "ct": 706,
      "ley": 707,
      "lect": 708,
      "alley": 709,
      "ĠSelect": 710,
      "ĠValley": 711,
      "ock": 712,
      "op": 713,
      "ĠFork": 714,
      "26": 715,
      "ill": 716,
      "ic": 717,
      "28": 718,
      "Ġcare": 719,
      "um": 720,
      "25": 721,
      "edar": 722,
      "ĠCedar": 723,
      "ĠY": 724,
      "ĠSi": 725,
      "aby": 726,
      "ĠWater": 727,
      "onsi": 728,
      "24": 729,
      "Ġg": 730,
      "rg": 731,
      "27": 732,
      "ices": 733,
      "Ġ20": 734,
      "ked": 735,
      "ĠSize": 736,
      "29": 737,
      "weet": 738,
      "iltered": 739,
      "ĠFiltered": 740,
      "Ġbeverages": 741,
      "ium": 742,
      "Ġas": 743,
      "Ġpart": 744,
      "ĠStock": 745,
      "Ġflour": 746,
      "ason": 747,
      "ĠSeason": 748,
      "less": 749,
      "ard": 750,
      "andard": 751,
      "ol": 752,
      "Ġreordered": 753,
      "es": 754,
      "vie": 755,
      "view": 756,
      "Ġcustomer": 757,
      "airy": 758,
      "Ġdairy": 759,
      "ures": 760,
      "ĠCultures": 761,
      "vail": 762,
      "ĠFavor": 763,
      "Ġ64": 764,
      "ĠFavorite": 765,
      "mon": 766,
      "arely": 767,
      "ms": 768,
      "ne": 769,
      "pur": 770,
      "Ġit": 771,
      "Ġite": 772,
      "Ġais": 773,
      "cei": 774,
      "ased": 775,
      "ĠOne": 776,
      "chased": 777,
      "purchased": 778,
      "Ġits": 779,
      "Ġitems": 780,
      "Ġaisle": 781,
      "54": 782,
      "Re": 783,
      "ighly": 784,
      "cently": 785,
      "atal": 786,
      "Ġadd": 787,
      "Ġcatal": 788,
      "ĠCreamy": 789,
      "Ġcatalog": 790,
      "ps": 791,
      "Ġlimited": 792,
      "53": 793,
      "ity": 794,
      "east": 795,
      "Ġbakery": 796,
      "ĠYeast": 797,
      "onsist": 798,
      "57": 799,
      "ell": 800,
      "ato": 801,
      "59": 802,
      "Ġgal": 803,
      "ĠOil": 804,
      "36": 805,
      "55": 806,
      "48": 807,
      "ĠSpices": 808,
      "39": 809,
      "ĠLow": 810,
      "31": 811,
      "49": 812,
      "47": 813,
      "Ġso": 814,
      "ash": 815,
      "ro": 816,
      "46": 817,
      "ix": 818,
      "ĠVi": 819,
      "38": 820,
      "58": 821,
      "56": 822,
      "ened": 823,
      "ĠCh": 824,
      "weetened": 825,
      "43": 826,
      "ish": 827,
      "ips": 828,
      "37": 829,
      "ĠSoy": 830,
      "ese": 831,
      "heese": 832,
      "33": 833,
      "ĠBaby": 834,
      "ap": 835,
      "ee": 836,
      "Ġme": 837,
      "Ġmeat": 838,
      "35": 839,
      "44": 840,
      "Ġh": 841,
      "Ġsnacks": 842,
      "51": 843,
      "ĠTo": 844,
      "eanut": 845,
      "45": 846,
      "ĠGrains": 847,
      "ĠSeasoning": 848,
      "32": 849,
      "ĠSh": 850,
      "ial": 851,
      "34": 852,
      "52": 853,
      "ĠZ": 854,
      "30": 855,
      "Ġpo": 856,
      "tive": 857,
      "ĠLight": 858,
      "ĠLightly": 859,
      "ĠMin": 860,
      "Ġ50": 861,
      "ixed": 862,
      "41": 863,
      "ac": 864,
      "42": 865,
      "ĠPack": 866,
      "ĠE": 867,
      "all": 868,
      "ain": 869,
      "87": 870,
      "ĠPeanut": 871,
      "mul": 872,
      "mula": 873,
      "Ġpast": 874,
      "ĠCl": 875,
      "ber": 876,
      "sp": 877,
      "Ġho": 878,
      "usehold": 879,
      "aterial": 880,
      "Ġmaterial": 881,
      "Ġhousehold": 882,
      "Ġmaterials": 883,
      "ener": 884,
      "Ġformula": 885,
      "97": 886,
      "ition": 887,
      "aff": 888,
      "Ġmixed": 889,
      "ance": 890,
      "oft": 891,
      "ree": 892,
      "ts": 893,
      "tra": 894,
      "xtra": 895,
      "Ġpersonal": 896,
      "rgin": 897,
      "ĠVirgin": 898,
      "ĠExtra": 899,
      "ĠRead": 900,
      "ĠReady": 901,
      "Ġ31": 902,
      "88": 903,
      "sic": 904,
      "assic": 905,
      "hell": 906,
      "ĠClassic": 907,
      "Ġch": 908,
      "79": 909,
      "Ġ33": 910,
      "oli": 911,
      "Ġfr": 912,
      "san": 913,
      "Ġth": 914,
      "ĠCho": 915,
      "eafood": 916,
      "Ġseafood": 917,
      "rais": 918,
      "ĠSod": 919,
      "Ġmo": 920,
      "ĠSodium": 921,
      "78": 922,
      "Ġfar": 923,
      "ĠLimited": 924,
      "cc": 925,
      "pend": 926,
      "Ġacc": 927,
      "Ġpick": 928,
      "ording": 929,
      "Ġdepend": 930,
      "Ġreview": 931,
      "Ġaccording": 932,
      "Ġdependable": 933,
      "Ġreviews": 934,
      "Ġline": 935,
      "ĠStocked": 936,
      "Ġlineup": 937,
      "ĠWash": 938,
      "86": 939,
      "Ġnuts": 940,
      "ĠTree": 941,
      "illa": 942,
      "ĠSoft": 943,
      "anic": 944,
      "ĠOrg": 945,
      "omato": 946,
      "ĠOrganic": 947,
      "ering": 948,
      "ĠAvail": 949,
      "Ġordering": 950,
      "Ġstandard": 951,
      "ĠPeanuts": 952,
      "ĠAvailable": 953,
      "ag": 954,
      "Ġ19": 955,
      "98": 956,
      "ĠSte": 957,
      "Cle": 958,
      "Di": 959,
      "tin": 960,
      "uing": 961,
      "ĠI": 962,
      "ontin": 963,
      "scontin": 964,
      "arance": 965,
      "ĠSoon": 966,
      "Clearance": 967,
      "Discontin": 968,
      "Discontinuing": 969,
      "0002": 970,
      "0016": 971,
      "76": 972,
      "Shopp": 973,
      "vent": 974,
      "Ġinvent": 975,
      "ĠShips": 976,
      "Shopper": 977,
      "Ġinventory": 978,
      "New": 979,
      "ning": 980,
      "qu": 981,
      "tur": 982,
      "Ġretur": 983,
      "ĠFrequ": 984,
      "Ġreturning": 985,
      "ĠFrequently": 986,
      "rated": 987,
      "Unrated": 988,
      "lut": 989,
      "ĠGlut": 990,
      "ĠGluten": 991,
      "Cur": 992,
      "rent": 993,
      "ĠRarely": 994,
      "Current": 995,
      "mium": 996,
      "ĠPremium": 997,
      "Ġless": 998,
      "repurchased": 999,
      "St": 1000,
      "ved": 1001,
      "ĠRecei": 1002,
      "Ġfrom": 1003,
      "Standard": 1004,
      "ĠReceived": 1005,
      "Highly": 1006,
      "ĠPick": 1007,
      "Ġ(#": 1008,
      "89": 1009,
      "Ġsp": 1010,
      "Ġnew": 1011,
      "ĠAdd": 1012,
      "Regular": 1013,
      "Recently": 1014,
      "Ġaddition": 1015,
      "Ġnewer": 1016,
      "ĠAdded": 1017,
      "Limited": 1018,
      "ĠSm": 1019,
      "sitive": 1020,
      "ally": 1021,
      "Ġrecei": 1022,
      "ĠGener": 1023,
      "ves": 1024,
      "Ġpositive": 1025,
      "Ġreceives": 1026,
      "ĠGenerally": 1027,
      "Custom": 1028,
      "Ġis": 1029,
      "isting": 1030,
      "Ġlisting": 1031,
      "Ġstill": 1032,
      "Ġthis": 1033,
      "Customer": 1034,
      "Ġ25": 1035,
      "Ġrepurchased": 1036,
      "Ġmost": 1037,
      "99": 1038,
      "Pop": 1039,
      "Rarely": 1040,
      "ĠReordered": 1041,
      "ĠRecently": 1042,
      "icken": 1043,
      "Ġadded": 1044,
      "ĠChoice": 1045,
      "ĠWashed": 1046,
      "Popular": 1047,
      "Top": 1048,
      "ĠSl": 1049,
      "64": 1050,
      "62": 1051,
      "Ġfut": 1052,
      "ility": 1053,
      "Ġavail": 1054,
      "Ġconsist": 1055,
      "Ġ26": 1056,
      "ality": 1057,
      "Ġquality": 1058,
      "ability": 1059,
      "ĠMarked": 1060,
      "Ġhighly": 1061,
      "Ġfuture": 1062,
      "Ġavailability": 1063,
      "Ġconsistent": 1064,
      "Low": 1065,
      "Be": 1066,
      "ĠSeller": 1067,
      "Best": 1068,
      "ĠMini": 1069,
      "com": 1070,
      "ft": 1071,
      "mended": 1072,
      "peat": 1073,
      "Ġrecom": 1074,
      "Ġrepeat": 1075,
      "ĠOft": 1076,
      "Ġrecommended": 1077,
      "ĠOften": 1078,
      "74": 1079,
      "Well": 1080,
      "ĠReview": 1081,
      "ĠReviewed": 1082,
      "65": 1083,
      "94": 1084,
      "Ġprais": 1085,
      "ĠConsist": 1086,
      "Ġpraised": 1087,
      "ĠConsistently": 1088,
      "iked": 1089,
      "Ġliked": 1090,
      "ĠWell": 1091,
      "kin": 1092,
      "ĠSkin": 1093,
      "0006": 1094,
      "77": 1095,
      "82": 1096,
      "eine": 1097,
      "ĠCaff": 1098,
      "urt": 1099,
      "ogurt": 1100,
      "ĠCaffeine": 1101,
      "95": 1102,
      "96": 1103,
      "ĠPul": 1104,
      "ĠPulp": 1105,
      "75": 1106,
      "ĠShell": 1107,
      "ero": 1108,
      "utter": 1109,
      "ĠZero": 1110,
      "led": 1111,
      "ets": 1112,
      "Ġ23": 1113,
      "ugh": 1114,
      "91": 1115,
      "nam": 1116,
      "72": 1117,
      "84": 1118,
      "sweetened": 1119,
      "ĠUnsweetened": 1120,
      "73": 1121,
      "61": 1122,
      "uice": 1123,
      "risp": 1124,
      "ĠCrisp": 1125,
      "ĠCrispy": 1126,
      "tal": 1127,
      "ĠItal": 1128,
      "85": 1129,
      "Ġ30": 1130,
      "berry": 1131,
      "atch": 1132,
      "ĠSweetened": 1133,
      "ĠBatch": 1134,
      "ured": 1135,
      "ĠRipe": 1136,
      "ĠCultured": 1137,
      "ĠSmall": 1138,
      "tato": 1139,
      "Ġbre": 1140,
      "ĠBre": 1141,
      "ĠSour": 1142,
      "69": 1143,
      "Ġcheese": 1144,
      "ĠCheese": 1145,
      "ĠSalted": 1146,
      "ace": 1147,
      "face": 1148,
      "urface": 1149,
      "71": 1150,
      "0000": 1151,
      "67": 1152,
      "emon": 1153,
      "ĠLemon": 1154,
      "anilla": 1155,
      "93": 1156,
      "eef": 1157,
      "92": 1158,
      "81": 1159,
      "63": 1160,
      "ĠCr": 1161,
      "rti": 1162,
      "ĠArti": 1163,
      "ĠArtisan": 1164,
      "amable": 1165,
      "ĠSteamable": 1166,
      "ach": 1167,
      "inach": 1168,
      "0007": 1169,
      "iced": 1170,
      "ĠSliced": 1171,
      "ok": 1172,
      "Ġbaby": 1173,
      "0019": 1174,
      "os": 1175,
      "ĠHeat": 1176,
      "40": 1177,
      "83": 1178,
      "Ġ34": 1179,
      "66": 1180,
      "Ġro": 1181,
      "ĠRo": 1182,
      "68": 1183,
      "ĠHe": 1184,
      "tt": 1185,
      "ĠBak": 1186,
      "ĠBaked": 1187,
      "50": 1188,
      "eal": 1189,
      "ĠSurface": 1190,
      "ĠFat": 1191,
      "0017": 1192,
      "ĠTh": 1193,
      "ĠSc": 1194,
      "ĠFish": 1195,
      "ĠSpain": 1196,
      "Ġ22": 1197,
      "ran": 1198,
      "0009": 1199,
      "uc": 1200,
      "alf": 1201,
      "ex": 1202,
      "entle": 1203,
      "ĠMex": 1204,
      "ĠGentle": 1205,
      "Ġsal": 1206,
      "0018": 1207,
      "ico": 1208,
      "ĠMexico": 1209,
      "ey": 1210,
      "key": 1211,
      "urkey": 1212,
      "unch": 1213,
      "aco": 1214,
      "ĠCrunch": 1215,
      "ĠCrunchy": 1216,
      "ats": 1217,
      "lled": 1218,
      "ĠNew": 1219,
      "ĠZeal": 1220,
      "ĠZealand": 1221,
      "ls": 1222,
      "Ġo": 1223,
      "anan": 1224,
      "ĠBone": 1225,
      "ĠCook": 1226,
      "ĠBoneless": 1227,
      "Ġ27": 1228,
      "ong": 1229,
      "ĠSea": 1230,
      "Ġ28": 1231,
      "ĠMul": 1232,
      "ĠMulti": 1233,
      "fish": 1234,
      "ĠSeasoned": 1235,
      "ĠShellfish": 1236,
      "arty": 1237,
      "ĠParty": 1238,
      "0008": 1239,
      "ĠItaly": 1240,
      "ĠScent": 1241,
      "ĠCan": 1242,
      "ada": 1243,
      "ĠCanada": 1244,
      "lack": 1245,
      "eans": 1246,
      "dr": 1247,
      "ydr": 1248,
      "ating": 1249,
      "Ġtomato": 1250,
      "ĠHydr": 1251,
      "ĠTomato": 1252,
      "ĠHydrating": 1253,
      "het": 1254,
      "rup": 1255,
      "yrup": 1256,
      "ailand": 1257,
      "ags": 1258,
      "aghet": 1259,
      "ĠThailand": 1260,
      "aghetti": 1261,
      "auce": 1262,
      "ĠLean": 1263,
      "Ġ21": 1264,
      "umb": 1265,
      "Ġ37": 1266,
      "0013": 1267,
      "pples": 1268,
      "ucumb": 1269,
      "ucumbers": 1270,
      "Ġma": 1271,
      "Ġ51": 1272,
      "eru": 1273,
      "ĠPeru": 1274,
      "ile": 1275,
      "etnam": 1276,
      "ĠVietnam": 1277,
      "ĠChile": 1278,
      "tatoes": 1279,
      "Ġ29": 1280,
      "ented": 1281,
      "scented": 1282,
      "Ġ35": 1283,
      "ĠUnscented": 1284,
      "Ġsh": 1285,
      "dar": 1286,
      "lmon": 1287,
      "eddar": 1288,
      "arp": 1289,
      "maine": 1290,
      "arts": 1291,
      "ade": 1292,
      "ĠChicken": 1293,
      "Ġchicken": 1294,
      "lmond": 1295,
      "ttage": 1296,
      "ananas": 1297,
      "0014": 1298,
      "uty": 1299,
      "ĠDuty": 1300,
      "avy": 1301,
      "ĠHeavy": 1302,
      "coli": 1303,
      "roc": 1304,
      "orets": 1305,
      "0003": 1306,
      "aper": 1307,
      "ĠMint": 1308,
      "ĠSkinless": 1309,
      "roccoli": 1310,
      "ĠPo": 1311,
      "rin": 1312,
      "orts": 1313,
      "ups": 1314,
      "rink": 1315,
      "ĠSensi": 1316,
      "ĠSensitive": 1317,
      "akes": 1318,
      "yogurt": 1319,
      "Ġyogurt": 1320,
      "0004": 1321,
      "ĠYogurt": 1322,
      "augh": 1323,
      "wber": 1324,
      "ries": 1325,
      "ild": 1326,
      "ĠCaugh": 1327,
      "rawber": 1328,
      "ĠWild": 1329,
      "ĠCaught": 1330,
      "rawberries": 1331,
      "onut": 1332,
      "ĠPee": 1333,
      "oconut": 1334,
      "Ġ48": 1335,
      "ĠPeeled": 1336,
      "ĠFl": 1337,
      "ek": 1338,
      "zare": 1339,
      "rioc": 1340,
      "ozzare": 1341,
      "uns": 1342,
      "Ġbutter": 1343,
      "lla": 1344,
      "ĠButter": 1345,
      "ĠGreek": 1346,
      "rioche": 1347,
      "ozzarella": 1348,
      "saf": 1349,
      "Ġmilk": 1350,
      "safe": 1351,
      "ea": 1352,
      "voc": 1353,
      "Ġrice": 1354,
      "oran": 1355,
      "ĠRice": 1356,
      "Ġ49": 1357,
      "ados": 1358,
      "ranberry": 1359,
      "vocados": 1360,
      "bly": 1361,
      "cy": 1362,
      "ced": 1363,
      "cled": 1364,
      "ĠResp": 1365,
      "ĠRecy": 1366,
      "onsibly": 1367,
      "ĠSourced": 1368,
      "ĠResponsibly": 1369,
      "ĠRecycled": 1370,
      "Juice": 1371,
      "juice": 1372,
      "ĠJuice": 1373,
      "Ġjuice": 1374,
      "Ġ62": 1375,
      "Ġ36": 1376,
      "reen": 1377,
      "Ġ61": 1378,
      "Ġ65": 1379,
      "Ġgreen": 1380,
      "do": 1381,
      "oaf": 1382,
      "dough": 1383,
      "kl": 1384,
      "parkl": 1385,
      "ortill": 1386,
      "parkling": 1387,
      "ortillas": 1388,
      "eas": 1389,
      "table": 1390,
      "getable": 1391,
      "ĠAnd": 1392,
      "Ġ67": 1393,
      "getables": 1394,
      "ff": 1395,
      "uff": 1396,
      "vanilla": 1397,
      "Ġvanilla": 1398,
      "ins": 1399,
      "gets": 1400,
      "ita": 1401,
      "ĠVanilla": 1402,
      "uggets": 1403,
      "ockets": 1404,
      "uffins": 1405,
      "Ġbeef": 1406,
      "ĠBeef": 1407,
      "la": 1408,
      "Ġsour": 1409,
      "Ġ45": 1410,
      "sa": 1411,
      "Ġ46": 1412,
      "Ġ47": 1413,
      "ioli": 1414,
      "ĠSpinach": 1415,
      "Ġspinach": 1416,
      "Ġ53": 1417,
      "fee": 1418,
      "lain": 1419,
      "agels": 1420,
      "offee": 1421,
      "issan": 1422,
      "roissan": 1423,
      "roissants": 1424,
      "Ġ54": 1425,
      "Ġ55": 1426,
      "Ġ57": 1427,
      "Ġ71": 1428,
      "otion": 1429,
      "Ġ68": 1430,
      "Ġ42": 1431,
      "Ġ56": 1432,
      "innam": 1433,
      "innamon": 1434,
      "epp": 1435,
      "iz": 1436,
      "za": 1437,
      "eron": 1438,
      "inner": 1439,
      "lls": 1440,
      "Ġ60": 1441,
      "epperon": 1442,
      "izza": 1443,
      "epperoni": 1444,
      "Ġcream": 1445,
      "Ġ63": 1446,
      "Ġ66": 1447,
      "Ġwhole": 1448,
      "ille": 1449,
      "Ġ52": 1450,
      "illets": 1451,
      "Ġ58": 1452,
      "vol": 1453,
      "Ġ44": 1454,
      "rovol": 1455,
      "rovolone": 1456,
      "Ġ40": 1457,
      "Ġ59": 1458,
      "Ġbread": 1459,
      "ĠBread": 1460,
      "oked": 1461,
      "Ġ39": 1462,
      "Ġ43": 1463,
      "ĠSoup": 1464,
      "Ġsoup": 1465,
      "Ġ69": 1466,
      "0015": 1467,
      "cor": 1468,
      "opcor": 1469,
      "opcorn": 1470,
      "Ġ70": 1471,
      "0005": 1472,
      "ackers": 1473,
      "ĠHalf": 1474,
      "Ġhalf": 1475,
      "affles": 1476,
      "ars": 1477,
      "Ġturkey": 1478,
      "ĠTurkey": 1479,
      "ola": 1480,
      "Ġtaco": 1481,
      "Ġshell": 1482,
      "ĠTaco": 1483,
      "ĠShells": 1484,
      "Ġshells": 1485,
      "fast": 1486,
      "tos": 1487,
      "ritos": 1488,
      "urritos": 1489,
      "akfast": 1490,
      "Ġ79": 1491,
      "ĠOats": 1492,
      "ĠSoap": 1493,
      "Ġsoap": 1494,
      "Ġrolled": 1495,
      "ĠRolled": 1496,
      "Ġoats": 1497,
      "ĠChips": 1498,
      "Ġchips": 1499,
      "ive": 1500,
      "live": 1501,
      "tze": 1502,
      "wist": 1503,
      "Ġoli": 1504,
      "rail": 1505,
      "ighs": 1506,
      "ĠOlive": 1507,
      "Ġoil": 1508,
      "tzel": 1509,
      "wists": 1510,
      "Ġolive": 1511,
      "ĠLong": 1512,
      "Ġ38": 1513,
      "Ġgrain": 1514,
      "Ġlong": 1515,
      "ball": 1516,
      "acon": 1517,
      "balls": 1518,
      "Ġ72": 1519,
      "Ġ74": 1520,
      "eak": 1521,
      "ound": 1522,
      "Ġground": 1523,
      "ĠGro": 1524,
      "ortilla": 1525,
      "Ġsteak": 1526,
      "ĠSteak": 1527,
      "ĠGround": 1528,
      "au": 1529,
      "ian": 1530,
      "sage": 1531,
      "Ġ82": 1532,
      "ĠItalian": 1533,
      "ausage": 1534,
      "ocol": 1535,
      "ies": 1536,
      "ocolate": 1537,
      "rash": 1538,
      "ric": 1539,
      "Ġblack": 1540,
      "Ġbeans": 1541,
      "ĠBlack": 1542,
      "ĠBeans": 1543,
      "abric": 1544,
      "Ġ81": 1545,
      "hp": 1546,
      "hw": 1547,
      "ot": 1548,
      "ple": 1549,
      "ĠSyrup": 1550,
      "Ġbags": 1551,
      "uthw": 1552,
      "ĠBags": 1553,
      "ĠMap": 1554,
      "Ġsyrup": 1555,
      "aste": 1556,
      "ĠSpaghetti": 1557,
      "Ġspaghetti": 1558,
      "Ġmaple": 1559,
      "hpaste": 1560,
      "othpaste": 1561,
      "uthwash": 1562,
      "ĠMaple": 1563,
      "ĠSauce": 1564,
      "ĠPast": 1565,
      "Ġsauce": 1566,
      "Ġpasta": 1567,
      "ĠPasta": 1568,
      "lend": 1569,
      "uit": 1570,
      "zer": 1571,
      "una": 1572,
      "Ġmin": 1573,
      "Ġapples": 1574,
      "Ġcucumbers": 1575,
      "ĠCucumbers": 1576,
      "ĠApples": 1577,
      "Ġmini": 1578,
      "mp": 1579,
      "rimp": 1580,
      "Ġpeanut": 1581,
      "ĠSweet": 1582,
      "Ġsweet": 1583,
      "Ġpotatoes": 1584,
      "ĠPotatoes": 1585,
      "lo": 1586,
      "oo": 1587,
      "oil": 1588,
      "rlo": 1589,
      "su": 1590,
      "ortion": 1591,
      "onge": 1592,
      "minum": 1593,
      "ampoo": 1594,
      "ĠSalmon": 1595,
      "luminum": 1596,
      "acial": 1597,
      "Ġsalmon": 1598,
      "rloin": 1599,
      "sues": 1600,
      "ortions": 1601,
      "onges": 1602,
      "Ġle": 1603,
      "Ġhe": 1604,
      "Ġalmond": 1605,
      "ĠAlmond": 1606,
      "ĠMac": 1607,
      "Ġ41": 1608,
      "monade": 1609,
      "ĠCheddar": 1610,
      "ĠSharp": 1611,
      "Ġcheddar": 1612,
      "ĠLemonade": 1613,
      "Ġromaine": 1614,
      "ĠRomaine": 1615,
      "ĠHearts": 1616,
      "Ġmac": 1617,
      "Ġsharp": 1618,
      "Ġlemonade": 1619,
      "Ġhearts": 1620,
      "ilet": 1621,
      "Ġbananas": 1622,
      "ĠBananas": 1623,
      "Ġcottage": 1624,
      "ĠCottage": 1625,
      "Ġ80": 1626,
      "dition": 1627,
      "wab": 1628,
      "ondition": 1629,
      "Ġpaper": 1630,
      "Ġbroccoli": 1631,
      "ĠPaper": 1632,
      "ĠBroccoli": 1633,
      "Ġflorets": 1634,
      "tton": 1635,
      "ĠFlorets": 1636,
      "wabs": 1637,
      "onditioner": 1638,
      "Ġcups": 1639,
      "Ġdrink": 1640,
      "ĠCups": 1641,
      "ĠDrink": 1642,
      "ĠSports": 1643,
      "Ġsports": 1644,
      "lean": 1645,
      "wels": 1646,
      "Ġ73": 1647,
      "leaner": 1648,
      "Ġcakes": 1649,
      "ĠCakes": 1650,
      "0012": 1651,
      "ĠStrawberries": 1652,
      "ody": 1653,
      "odoran": 1654,
      "Ġstrawberries": 1655,
      "ops": 1656,
      "allops": 1657,
      "odorant": 1658,
      "Ġcoconut": 1659,
      "ĠCoconut": 1660,
      "Ġ78": 1661,
      "lices": 1662,
      "Ġbuns": 1663,
      "Ġbrioche": 1664,
      "ĠBuns": 1665,
      "ĠBrioche": 1666,
      "ĠMozzarella": 1667,
      "Ġslices": 1668,
      "ĠDe": 1669,
      "Ġmozzarella": 1670,
      "ĠSlices": 1671,
      "Ġavocados": 1672,
      "Ġcranberry": 1673,
      "ĠCranberry": 1674,
      "ĠAvocados": 1675,
      "Ġtea": 1676,
      "ĠTea": 1677,
      "aund": 1678,
      "gent": 1679,
      "tergent": 1680,
      "aundry": 1681,
      "Ġoran": 1682,
      "ĠLoaf": 1683,
      "Ġloaf": 1684,
      "ĠOran": 1685,
      "ĠSourdough": 1686,
      "Ġsourdough": 1687,
      "Ġorange": 1688,
      "ĠOrange": 1689,
      "ĠSparkling": 1690,
      "Ġtortillas": 1691,
      "Ġsparkling": 1692,
      "ĠTortillas": 1693,
      "ĠFlour": 1694,
      "ape": 1695,
      "egetables": 1696,
      "Ġve": 1697,
      "Ġpeas": 1698,
      "ĠPeas": 1699,
      "Ġgrape": 1700,
      "ĠMixed": 1701,
      "Ġ75": 1702,
      "ĠGrape": 1703,
      "ĠVegetables": 1704,
      "Ġtomatoes": 1705,
      "ĠTomatoes": 1706,
      "Ġvegetables": 1707,
      "Ġpita": 1708,
      "Ġpockets": 1709,
      "Ġnuggets": 1710,
      "Ġblue": 1711,
      "ĠPita": 1712,
      "ĠPockets": 1713,
      "ĠMuffins": 1714,
      "ĠNuggets": 1715,
      "Ġ76": 1716,
      "Ġmuffins": 1717,
      "ĠBlueberry": 1718,
      "Ġblueberry": 1719,
      "Ġcola": 1720,
      "rips": 1721,
      "ĠCola": 1722,
      "ĠSalsa": 1723,
      "Ġ83": 1724,
      "Ġsalsa": 1725,
      "violi": 1726,
      "Ġra": 1727,
      "ĠRav": 1728,
      "Ġravioli": 1729,
      "ĠRavioli": 1730,
      "ted": 1731,
      "Ġplain": 1732,
      "Ġcoffee": 1733,
      "Ġcroissants": 1734,
      "Ġbagels": 1735,
      "ĠPlain": 1736,
      "ĠCoffee": 1737,
      "ĠCroissants": 1738,
      "ĠBagels": 1739,
      "Ġcold": 1740,
      "ĠCold": 1741,
      "Ġbrew": 1742,
      "ĠBrew": 1743,
      "Ġsalted": 1744,
      "ia": 1745,
      "ilap": 1746,
      "rab": 1747,
      "ilapia": 1748,
      "ĠLotion": 1749,
      "Ġlotion": 1750,
      "ais": 1751,
      "Ġrais": 1752,
      "Ġcinnamon": 1753,
      "ĠCinnamon": 1754,
      "ĠRais": 1755,
      "Ġraisin": 1756,
      "ĠRaisin": 1757,
      "Ġpizza": 1758,
      "Ġpepperoni": 1759,
      "Ġdinner": 1760,
      "ĠPizza": 1761,
      "ĠPepperoni": 1762,
      "ĠDinner": 1763,
      "Ġrolls": 1764,
      "ĠRolls": 1765,
      "Ġfillets": 1766,
      "ĠFillets": 1767,
      "Ġ86": 1768,
      "Ġ77": 1769,
      "Ġprovolone": 1770,
      "ĠProvolone": 1771,
      "moked": 1772,
      "grance": 1773,
      "ĠFra": 1774,
      "Ġsmoked": 1775,
      "ĠSmoked": 1776,
      "ĠFragrance": 1777,
      "Ġice": 1778,
      "ĠIce": 1779,
      "Ġpopcorn": 1780,
      "ĠPopcorn": 1781,
      "Ġ84": 1782,
      "rackers": 1783,
      "Ġcrackers": 1784,
      "Ġdish": 1785,
      "ĠWaffles": 1786,
      "ĠHam": 1787,
      "ĠDish": 1788,
      "Ġwheat": 1789,
      "Ġwaffles": 1790,
      "Ġham": 1791,
      "Ġpotato": 1792,
      "ĠCrackers": 1793,
      "ĠPotato": 1794,
      "nola": 1795,
      "Ġpork": 1796,
      "Ġcho": 1797,
      "Ġbars": 1798,
      "ĠPork": 1799,
      "asy": 1800,
      "anola": 1801,
      "ĠBars": 1802,
      "Ġgranola": 1803,
      "ĠGrip": 1804,
      "Ġ87": 1805,
      "ĠGranola": 1806,
      "ĠEasy": 1807,
      "ĠChops": 1808,
      "Ġchops": 1809,
      "Ġburritos": 1810,
      "ĠBurritos": 1811,
      "Ġbreakfast": 1812,
      "ĠBreakfast": 1813,
      "retzel": 1814,
      "Ġpretzel": 1815,
      "ĠMix": 1816,
      "Ġtrail": 1817,
      "Ġtwists": 1818,
      "ĠTrail": 1819,
      "ĠTwists": 1820,
      "ĠPretzel": 1821,
      "Ġmix": 1822,
      "Ġthighs": 1823,
      "ĠThighs": 1824,
      "Ġbacon": 1825,
      "ĠBacon": 1826,
      "ĠHand": 1827,
      "ĠMeatballs": 1828,
      "Ġmeatballs": 1829,
      "Ġhand": 1830,
      "Ġ85": 1831,
      "Ġtortilla": 1832,
      "00149": 1833,
      "ĠTortilla": 1834,
      "ĠSausage": 1835,
      "Ġ89": 1836,
      "Ġsausage": 1837,
      "Ġbreast": 1838,
      "ĠBreast": 1839,
      "Ġcook": 1840,
      "00153": 1841,
      "ĠChocolate": 1842,
      "Ġchocolate": 1843,
      "ĠCookies": 1844,
      "Ġcookies": 1845,
      "Ġfabric": 1846,
      "ĠFabric": 1847,
      "Ġtrash": 1848,
      "Ġsoft": 1849,
      "ĠTrash": 1850,
      "00015": 1851,
      "ĠSoftener": 1852,
      "Ġsoftener": 1853,
      "outhwash": 1854,
      "ĠMouthwash": 1855,
      "Ġtoothpaste": 1856,
      "ĠToothpaste": 1857,
      "Ġmouthwash": 1858,
      "ruit": 1859,
      "Ġfree": 1860,
      "ĠFruit": 1861,
      "Ġblend": 1862,
      "ĠBlend": 1863,
      "Ġtuna": 1864,
      "00115": 1865,
      "ĠTuna": 1866,
      "ĠFreezer": 1867,
      "Ġfruit": 1868,
      "Ġsteaks": 1869,
      "ĠSteaks": 1870,
      "Ġfreezer": 1871,
      "Ġ88": 1872,
      "00159": 1873,
      "Ġ94": 1874,
      "ĠShrimp": 1875,
      "Ġshrimp": 1876,
      "ssues": 1877,
      "Ġsi": 1878,
      "Ġfoil": 1879,
      "Ġfacial": 1880,
      "Ġaluminum": 1881,
      "Ġportions": 1882,
      "ĠFoil": 1883,
      "ĠFacial": 1884,
      "ĠPortions": 1885,
      "ĠCod": 1886,
      "ĠAluminum": 1887,
      "Ġcod": 1888,
      "Ġtissues": 1889,
      "ĠTis": 1890,
      "ĠSponges": 1891,
      "ĠSirloin": 1892,
      "ĠShampoo": 1893,
      "Ġsponges": 1894,
      "Ġshampoo": 1895,
      "Ġsirloin": 1896,
      "ĠTissues": 1897,
      "hes": 1898,
      "00107": 1899,
      "00054": 1900,
      "00036": 1901,
      "pple": 1902,
      "Ġtoilet": 1903,
      "ĠToilet": 1904,
      "uches": 1905,
      "anana": 1906,
      "ĠSwabs": 1907,
      "Ġconditioner": 1908,
      "ĠConditioner": 1909,
      "002": 1910,
      "Ġcotton": 1911,
      "Ġswabs": 1912,
      "00158": 1913,
      "00016": 1914,
      "00053": 1915,
      "00057": 1916,
      "Ġ90": 1917,
      "Ġ91": 1918,
      "ĠCotton": 1919,
      "Ġcleaner": 1920,
      "ĠCleaner": 1921,
      "Ġsurface": 1922,
      "00105": 1923,
      "00127": 1924,
      "00137": 1925,
      "Ġtowels": 1926,
      "ĠTowels": 1927,
      "Ġsc": 1928,
      "Ġbody": 1929,
      "ĠBody": 1930,
      "Ġdeodorant": 1931,
      "00138": 1932,
      "00176": 1933,
      "00049": 1934,
      "Ġ98": 1935,
      "Ġ99": 1936,
      "Ġwash": 1937,
      "ĠScallops": 1938,
      "ĠDeodorant": 1939,
      "Ġscallops": 1940,
      "00113": 1941,
      "00146": 1942,
      "00059": 1943,
      "00038": 1944,
      "00058": 1945,
      "00086": 1946,
      "Ġfish": 1947,
      "tick": 1948,
      "ĠStick": 1949,
      "ĠLaundry": 1950,
      "Ġdetergent": 1951,
      "Ġlaundry": 1952,
      "00102": 1953,
      "00108": 1954,
      "00117": 1955,
      "00154": 1956,
      "00014": 1957,
      "00039": 1958,
      "00046": 1959,
      "icks": 1960,
      "Ġsticks": 1961,
      "ĠDetergent": 1962,
      "ĠSticks": 1963,
      "00114": 1964,
      "00129": 1965,
      "00147": 1966,
      "00087": 1967,
      "00109": 1968,
      "00125": 1969,
      "00186": 1970,
      "fan": 1971,
      "lam": 1972,
      "ereal": 1973,
      "Ġclam": 1974,
      "ĠStrips": 1975,
      "00128": 1976,
      "00011": 1977,
      "00097": 1978,
      "Ġ95": 1979,
      "Ġstrips": 1980,
      "ĠClam": 1981,
      "fant": 1982,
      "00111": 1983,
      "00047": 1984,
      "00079": 1985,
      "der": 1986,
      "ining": 1987,
      "Ġcrab": 1988,
      "ĠCrab": 1989,
      "raining": 1990,
      "ants": 1991,
      "Ġtilapia": 1992,
      "00139": 1993,
      "00187": 1994,
      "ĠTilapia": 1995,
      "00012": 1996,
      "00013": 1997,
      "owder": 1998,
      "00112": 1999,
      "00101": 2000,
      "00119": 2001,
      "00116": 2002,
      "00188": 2003,
      "00019": 2004,
      "00100": 2005,
      "00104": 2006,
      "00123": 2007,
      "00126": 2008,
      "00124": 2009,
      "00157": 2010,
      "00106": 2011,
      "00118": 2012,
      "00148": 2013,
      "00197": 2014,
      "00037": 2015,
      "00136": 2016,
      "00178": 2017,
      "00018": 2018,
      "00048": 2019,
      "00076": 2020,
      "00089": 2021,
      "00198": 2022,
      "00196": 2023,
      "Ġ92": 2024,
      "Ġ97": 2025,
      "dl": 2026,
      "iap": 2027,
      "oddl": 2028,
      "00177": 2029,
      "00017": 2030,
      "00099": 2031,
      "Ġ96": 2032,
      "iapers": 2033,
      "oddler": 2034,
      "00103": 2035,
      "00155": 2036,
      "00143": 2037,
      "00179": 2038,
      "00098": 2039,
      "00189": 2040,
      "0001": 2041,
      "00056": 2042,
      "Ġ93": 2043,
      "00200": 2044,
      "00156": 2045,
      "00078": 2046,
      "Ġapple": 2047
    },
    "merges": [
      [
        "Ġ",
        "|"
      ],
      [
        "e",
        "r"
      ],
      [
        "o",
        "r"
      ],
      [
        "i",
        "n"
      ],
      [
        "e",
        "n"
      ],
      [
        "Ġ",
        "f"
      ],
      [
        "e",
        "d"
      ],
      [
        "s",
        "t"
      ],
      [
        "r",
        "i"
      ],
      [
        "o",
        "n"
      ],
      [
        "g",
        "e"
      ],
      [
        "a",
        "t"
      ],
      [
        "a",
        "ge"
      ],
      [
        "i",
        "l"
      ],
      [
        "o",
        "z"
      ],
      [
        "t",
        "i"
      ],
      [
        "t",
        "er"
      ],
      [
        "il",
        "ter"
      ],
      [
        "r",
        "e"
      ],
      [
        "Ġ",
        "a"
      ],
      [
        "Ġf",
        "ilter"
      ],
      [
        "c",
        "e"
      ],
      [
        "Ġ",
        "p"
      ],
      [
        "Ġ",
        "1"
      ],
      [
        "Ġ",
        "S"
      ],
      [
        "Ġ",
        "in"
      ],
      [
        "Ġ",
        "c"
      ],
      [
        "en",
        "t"
      ],
      [
        "n",
        "d"
      ],
      [
        "ri",
        "ce"
      ],
      [
        "or",
        "age"
      ],
      [
        "st",
        "orage"
      ],
      [
        "c",
        "k"
      ],
      [
        "i",
        "ent"
      ],
      [
        "at",
        "e"
      ],
      [
        "a",
        "ck"
      ],
      [
        "Ġ",
        "oz"
      ],
      [
        "Ġ",
        "2"
      ],
      [
        "i",
        "t"
      ],
      [
        "g",
        "r"
      ],
      [
        "er",
        "y"
      ],
      [
        "o",
        "f"
      ],
      [
        "s",
        "i"
      ],
      [
        "Ġf",
        "or"
      ],
      [
        "Ġ",
        "d"
      ],
      [
        "u",
        "n"
      ],
      [
        "i",
        "g"
      ],
      [
        "Ġ",
        "n"
      ],
      [
        "p",
        "e"
      ],
      [
        "l",
        "e"
      ],
      [
        "ti",
        "on"
      ],
      [
        "s",
        "c"
      ],
      [
        "m",
        "e"
      ],
      [
        "or",
        "y"
      ],
      [
        "t",
        "y"
      ],
      [
        "Ġ",
        "q"
      ],
      [
        "g",
        "ory"
      ],
      [
        "p",
        "rice"
      ],
      [
        "Ġ",
        "x"
      ],
      [
        "Ġ",
        "storage"
      ],
      [
        "Ġp",
        "ack"
      ],
      [
        "ate",
        "gory"
      ],
      [
        "ty",
        "pe"
      ],
      [
        "Ġpack",
        "age"
      ],
      [
        "a",
        "r"
      ],
      [
        "r",
        "y"
      ],
      [
        "a",
        "l"
      ],
      [
        "Ġ",
        "F"
      ],
      [
        "Ġ",
        "L"
      ],
      [
        "Ġ",
        "b"
      ],
      [
        "Ġ",
        "P"
      ],
      [
        "m",
        "b"
      ],
      [
        "Ġ",
        "C"
      ],
      [
        "mb",
        "ient"
      ],
      [
        "0",
        "0"
      ],
      [
        "e",
        "t"
      ],
      [
        "er",
        "s"
      ],
      [
        "t",
        "ry"
      ],
      [
        "a",
        "s"
      ],
      [
        "Ġ",
        "A"
      ],
      [
        "Ġ",
        "3"
      ],
      [
        "a",
        "m"
      ],
      [
        "r",
        "a"
      ],
      [
        "Ġ",
        "R"
      ],
      [
        "i",
        "st"
      ],
      [
        "u",
        "t"
      ],
      [
        "u",
        "re"
      ],
      [
        "l",
        "l"
      ],
      [
        "or",
        "d"
      ],
      [
        "0",
        "2"
      ],
      [
        "ĠL",
        "ist"
      ],
      [
        "ed",
        "ient"
      ],
      [
        "Ġin",
        "gr"
      ],
      [
        "edient",
        "s"
      ],
      [
        "Ġingr",
        "edients"
      ],
      [
        "en",
        "d"
      ],
      [
        "in",
        "e"
      ],
      [
        "i",
        "m"
      ],
      [
        "a",
        "n"
      ],
      [
        "ig",
        "h"
      ],
      [
        "l",
        "ine"
      ],
      [
        "Ġ",
        "on"
      ],
      [
        "z",
        "e"
      ],
      [
        "w",
        "e"
      ],
      [
        "ĠA",
        "mbient"
      ],
      [
        "o",
        "c"
      ],
      [
        "Ġon",
        "line"
      ],
      [
        "Ġ",
        "B"
      ],
      [
        "at",
        "ed"
      ],
      [
        "igh",
        "t"
      ],
      [
        "Ġd",
        "e"
      ],
      [
        "ĠS",
        "t"
      ],
      [
        "Ġn",
        "ut"
      ],
      [
        "Ġ",
        "ord"
      ],
      [
        "Ġc",
        "o"
      ],
      [
        "m",
        "a"
      ],
      [
        "Ġq",
        "u"
      ],
      [
        "ll",
        "er"
      ],
      [
        "end",
        "ed"
      ],
      [
        "Ġ",
        "gr"
      ],
      [
        "o",
        "d"
      ],
      [
        "u",
        "nd"
      ],
      [
        "m",
        "in"
      ],
      [
        "en",
        "si"
      ],
      [
        "Ġa",
        "nd"
      ],
      [
        "ri",
        "p"
      ],
      [
        "Ġ",
        "M"
      ],
      [
        "am",
        "p"
      ],
      [
        "Ġ",
        "ti"
      ],
      [
        "c",
        "ategory"
      ],
      [
        "g",
        "en"
      ],
      [
        "i",
        "d"
      ],
      [
        "t",
        "le"
      ],
      [
        "t",
        "ended"
      ],
      [
        "Ġ",
        "-"
      ],
      [
        "Ġ",
        "un"
      ],
      [
        "Ġ",
        "und"
      ],
      [
        "or",
        "e"
      ],
      [
        "or",
        "ig"
      ],
      [
        "st",
        "amp"
      ],
      [
        "ri",
        "tion"
      ],
      [
        "on",
        "s"
      ],
      [
        "ti",
        "tle"
      ],
      [
        "Ġa",
        "ller"
      ],
      [
        "Ġp",
        "rice"
      ],
      [
        "Ġin",
        "tended"
      ],
      [
        "Ġc",
        "ategory"
      ],
      [
        "Ġ2",
        "02"
      ],
      [
        "si",
        "ze"
      ],
      [
        "Ġd",
        "im"
      ],
      [
        "un",
        "try"
      ],
      [
        "Ġn",
        "et"
      ],
      [
        "sc",
        "rip"
      ],
      [
        "sc",
        "ore"
      ],
      [
        "me",
        "as"
      ],
      [
        "me",
        "stamp"
      ],
      [
        "Ġb",
        "ra"
      ],
      [
        "ĠList",
        "ed"
      ],
      [
        "we",
        "ight"
      ],
      [
        "oc",
        "ery"
      ],
      [
        "Ġde",
        "scrip"
      ],
      [
        "Ġnut",
        "rition"
      ],
      [
        "Ġord",
        "ers"
      ],
      [
        "Ġco",
        "untry"
      ],
      [
        "ma",
        "x"
      ],
      [
        "Ġqu",
        "ery"
      ],
      [
        "Ġgr",
        "ocery"
      ],
      [
        "ensi",
        "ons"
      ],
      [
        "Ġti",
        "mestamp"
      ],
      [
        "gen",
        "s"
      ],
      [
        "Ġun",
        "it"
      ],
      [
        "Ġund",
        "er"
      ],
      [
        "orig",
        "in"
      ],
      [
        "Ġaller",
        "gens"
      ],
      [
        "Ġdim",
        "ensions"
      ],
      [
        "meas",
        "ure"
      ],
      [
        "Ġbra",
        "nd"
      ],
      [
        "Ġdescrip",
        "tion"
      ],
      [
        "Ġf",
        "l"
      ],
      [
        "it",
        "ed"
      ],
      [
        "Ġ",
        "("
      ],
      [
        "Ġ",
        "l"
      ],
      [
        "ĠR",
        "e"
      ],
      [
        "f",
        "ri"
      ],
      [
        "g",
        "er"
      ],
      [
        "fri",
        "ger"
      ],
      [
        "friger",
        "ated"
      ],
      [
        "Ġ1",
        "2"
      ],
      [
        "U",
        "n"
      ],
      [
        "Ġ",
        "N"
      ],
      [
        "Ġ",
        "re"
      ],
      [
        "Ġ",
        "6"
      ],
      [
        "Ġ",
        "G"
      ],
      [
        "Ġ",
        "Un"
      ],
      [
        "u",
        "r"
      ],
      [
        "r",
        "oz"
      ],
      [
        "roz",
        "en"
      ],
      [
        "ate",
        "s"
      ],
      [
        "ĠSt",
        "ates"
      ],
      [
        "ĠUn",
        "ited"
      ],
      [
        "Ġ",
        "4"
      ],
      [
        "h",
        "o"
      ],
      [
        "ĠS",
        "al"
      ],
      [
        "h",
        "e"
      ],
      [
        "ĠSal",
        "t"
      ],
      [
        "Ġ",
        "5"
      ],
      [
        "Ġl",
        "b"
      ],
      [
        "l",
        "y"
      ],
      [
        "Ġ",
        "8"
      ],
      [
        "Ġ",
        "W"
      ],
      [
        "Ġ202",
        "5"
      ],
      [
        "in",
        "g"
      ],
      [
        "Ġ",
        "t"
      ],
      [
        "Ġ",
        "s"
      ],
      [
        "ĠRe",
        "frigerated"
      ],
      [
        "Ġc",
        "t"
      ],
      [
        "Ġ",
        "H"
      ],
      [
        "an",
        "try"
      ],
      [
        "Ġa",
        "mbient"
      ],
      [
        "l",
        "d"
      ],
      [
        "u",
        "l"
      ],
      [
        "a",
        "k"
      ],
      [
        "ĠF",
        "rozen"
      ],
      [
        "00",
        "1"
      ],
      [
        "Ġ1",
        "6"
      ],
      [
        "a",
        "b"
      ],
      [
        "o",
        "od"
      ],
      [
        "on",
        "e"
      ],
      [
        "ĠF",
        "re"
      ],
      [
        "u",
        "ce"
      ],
      [
        "Ġ",
        "7"
      ],
      [
        "ĠS",
        "e"
      ],
      [
        "Ġ",
        "0"
      ],
      [
        "Ġ",
        "O"
      ],
      [
        "r",
        "od"
      ],
      [
        "rod",
        "uce"
      ],
      [
        "v",
        "er"
      ],
      [
        "o",
        "m"
      ],
      [
        "s",
        "e"
      ],
      [
        "ĠN",
        "one"
      ],
      [
        "Ġ",
        "T"
      ],
      [
        "Ġ",
        "D"
      ],
      [
        "ĠP",
        "antry"
      ],
      [
        "k",
        "et"
      ],
      [
        "Ġ3",
        "2"
      ],
      [
        "00",
        "0"
      ],
      [
        "a",
        "re"
      ],
      [
        "a",
        "v"
      ],
      [
        "i",
        "s"
      ],
      [
        "u",
        "se"
      ],
      [
        "ĠD",
        "a"
      ],
      [
        "Ġ202",
        "4"
      ],
      [
        "av",
        "or"
      ],
      [
        "b",
        "ack"
      ],
      [
        "e",
        "ed"
      ],
      [
        "eed",
        "back"
      ],
      [
        "Ġ1",
        "0"
      ],
      [
        "a",
        "f"
      ],
      [
        "e",
        "ver"
      ],
      [
        "age",
        "s"
      ],
      [
        "ever",
        "ages"
      ],
      [
        "ĠM",
        "ar"
      ],
      [
        "il",
        "y"
      ],
      [
        "at",
        "er"
      ],
      [
        "o",
        "use"
      ],
      [
        "Ġ",
        "9"
      ],
      [
        "ĠH",
        "ouse"
      ],
      [
        "i",
        "ry"
      ],
      [
        "ab",
        "le"
      ],
      [
        "u",
        "st"
      ],
      [
        "ust",
        "om"
      ],
      [
        "v",
        "e"
      ],
      [
        "Ġre",
        "frigerated"
      ],
      [
        "1",
        "1"
      ],
      [
        "Ġ1",
        "5"
      ],
      [
        "Ġ1",
        "1"
      ],
      [
        "ĠP",
        "re"
      ],
      [
        "il",
        "k"
      ],
      [
        "ak",
        "ery"
      ],
      [
        "s",
        "h"
      ],
      [
        "ĠFre",
        "sh"
      ],
      [
        "0",
        "7"
      ],
      [
        "he",
        "at"
      ],
      [
        "ĠMar",
        "ket"
      ],
      [
        "0",
        "8"
      ],
      [
        "ar",
        "t"
      ],
      [
        "ĠW",
        "heat"
      ],
      [
        "ĠM",
        "ilk"
      ],
      [
        "0",
        "9"
      ],
      [
        "i",
        "e"
      ],
      [
        "e",
        "at"
      ],
      [
        "ĠList",
        "ing"
      ],
      [
        "p",
        "ar"
      ],
      [
        "Ġc",
        "ustom"
      ],
      [
        "Ġt",
        "he"
      ],
      [
        "ho",
        "ld"
      ],
      [
        "ul",
        "ar"
      ],
      [
        "at",
        "ur"
      ],
      [
        "Ġfl",
        "avor"
      ],
      [
        "ĠN",
        "atur"
      ],
      [
        "Ġflavor",
        "s"
      ],
      [
        "ĠNatur",
        "al"
      ],
      [
        "1",
        "0"
      ],
      [
        "p",
        "p"
      ],
      [
        "Ġb",
        "y"
      ],
      [
        "ĠG",
        "ra"
      ],
      [
        "Ġf",
        "rozen"
      ],
      [
        "Ġ",
        "V"
      ],
      [
        "on",
        "al"
      ],
      [
        "ers",
        "onal"
      ],
      [
        "re",
        "am"
      ],
      [
        "n",
        "ack"
      ],
      [
        "Ġ2",
        "4"
      ],
      [
        "nack",
        "s"
      ],
      [
        "i",
        "ce"
      ],
      [
        "ĠPre",
        "par"
      ],
      [
        "ĠPrepar",
        "ed"
      ],
      [
        "1",
        "2"
      ],
      [
        "Ġp",
        "roduce"
      ],
      [
        "ĠP",
        "roduce"
      ],
      [
        "Ġ",
        "m"
      ],
      [
        "ĠGra",
        "in"
      ],
      [
        "af",
        "ood"
      ],
      [
        "ĠM",
        "eat"
      ],
      [
        "ĠC",
        "ream"
      ],
      [
        "ĠB",
        "everages"
      ],
      [
        "a",
        "st"
      ],
      [
        "0",
        "1"
      ],
      [
        "0",
        "3"
      ],
      [
        "0",
        "6"
      ],
      [
        "c",
        "h"
      ],
      [
        "0",
        "5"
      ],
      [
        "ĠC",
        "o"
      ],
      [
        "ĠS",
        "o"
      ],
      [
        "Ġ",
        "of"
      ],
      [
        "0",
        "4"
      ],
      [
        "Ġ1",
        "3"
      ],
      [
        "ĠDa",
        "iry"
      ],
      [
        "g",
        "ular"
      ],
      [
        "Ġf",
        "eedback"
      ],
      [
        "im",
        "ited"
      ],
      [
        "u",
        "g"
      ],
      [
        "it",
        "e"
      ],
      [
        "ho",
        "pp"
      ],
      [
        "ent",
        "ly"
      ],
      [
        "or",
        "t"
      ],
      [
        "ĠB",
        "akery"
      ],
      [
        "ĠHouse",
        "hold"
      ],
      [
        "ĠP",
        "ersonal"
      ],
      [
        "1",
        "9"
      ],
      [
        "a",
        "nd"
      ],
      [
        "ĠR",
        "i"
      ],
      [
        "ĠS",
        "p"
      ],
      [
        "l",
        "u"
      ],
      [
        "Ġt",
        "o"
      ],
      [
        "Ġ",
        "w"
      ],
      [
        "ĠSe",
        "afood"
      ],
      [
        "ĠG",
        "re"
      ],
      [
        "a",
        "d"
      ],
      [
        "1",
        "5"
      ],
      [
        "1",
        "8"
      ],
      [
        "ĠDa",
        "ily"
      ],
      [
        "1",
        "6"
      ],
      [
        "Ġ1",
        "8"
      ],
      [
        "2",
        "1"
      ],
      [
        "lu",
        "e"
      ],
      [
        "1",
        "7"
      ],
      [
        "i",
        "ck"
      ],
      [
        "1",
        "4"
      ],
      [
        "1",
        "3"
      ],
      [
        "ĠS",
        "nacks"
      ],
      [
        "ĠFre",
        "e"
      ],
      [
        "Ġre",
        "gular"
      ],
      [
        "n",
        "er"
      ],
      [
        "Ġ1",
        "4"
      ],
      [
        "2",
        "3"
      ],
      [
        "er",
        "ed"
      ],
      [
        "ord",
        "ered"
      ],
      [
        "ĠF",
        "am"
      ],
      [
        "ĠFam",
        "ily"
      ],
      [
        "Ġcustom",
        "ers"
      ],
      [
        "ĠB",
        "lue"
      ],
      [
        "ho",
        "le"
      ],
      [
        "d",
        "d"
      ],
      [
        "2",
        "2"
      ],
      [
        "ĠR",
        "ated"
      ],
      [
        "ĠF",
        "eedback"
      ],
      [
        "F",
        "ie"
      ],
      [
        "ĠFresh",
        "Fie"
      ],
      [
        "ĠFreshFie",
        "ld"
      ],
      [
        "le",
        "s"
      ],
      [
        "Ġs",
        "hopp"
      ],
      [
        "Ġshopp",
        "ers"
      ],
      [
        "ĠC",
        "are"
      ],
      [
        "ĠGre",
        "en"
      ],
      [
        "o",
        "g"
      ],
      [
        "ĠC",
        "ul"
      ],
      [
        "ĠCul",
        "t"
      ],
      [
        "o",
        "w"
      ],
      [
        "Ġp",
        "antry"
      ],
      [
        "ĠC",
        "art"
      ],
      [
        "Ġ",
        "st"
      ],
      [
        "or",
        "k"
      ],
      [
        "ĠT",
        "able"
      ],
      [
        "ĠP",
        "ure"
      ],
      [
        "ĠS",
        "ug"
      ],
      [
        "ĠSug",
        "ar"
      ],
      [
        "u",
        "p"
      ],
      [
        "ĠG",
        "ood"
      ],
      [
        "ĠPure",
        "ly"
      ],
      [
        "ar",
        "ve"
      ],
      [
        "ĠL",
        "an"
      ],
      [
        "ĠH",
        "arve"
      ],
      [
        "ĠLan",
        "e"
      ],
      [
        "ĠHarve",
        "st"
      ],
      [
        "or",
        "ner"
      ],
      [
        "ĠC",
        "orner"
      ],
      [
        "Ġ",
        "&"
      ],
      [
        "ĠO",
        "ak"
      ],
      [
        "o",
        "ur"
      ],
      [
        "ĠF",
        "ood"
      ],
      [
        "ĠSt",
        "ar"
      ],
      [
        "ĠN",
        "ort"
      ],
      [
        "ĠFood",
        "s"
      ],
      [
        "ĠNort",
        "h"
      ],
      [
        "b",
        "end"
      ],
      [
        "ver",
        "bend"
      ],
      [
        "ĠRi",
        "verbend"
      ],
      [
        "ĠW",
        "hole"
      ],
      [
        "e",
        "w"
      ],
      [
        "Ġ1",
        "7"
      ],
      [
        "e",
        "an"
      ],
      [
        "n",
        "y"
      ],
      [
        "ĠS",
        "un"
      ],
      [
        "as",
        "ket"
      ],
      [
        "ĠB",
        "asket"
      ],
      [
        "ĠSun",
        "ny"
      ],
      [
        "c",
        "re"
      ],
      [
        "o",
        "ld"
      ],
      [
        "ĠA",
        "cre"
      ],
      [
        "ĠG",
        "old"
      ],
      [
        "ĠGold",
        "en"
      ],
      [
        "Ġw",
        "ater"
      ],
      [
        "2",
        "0"
      ],
      [
        "a",
        "il"
      ],
      [
        "c",
        "t"
      ],
      [
        "le",
        "y"
      ],
      [
        "le",
        "ct"
      ],
      [
        "al",
        "ley"
      ],
      [
        "ĠSe",
        "lect"
      ],
      [
        "ĠV",
        "alley"
      ],
      [
        "o",
        "ck"
      ],
      [
        "o",
        "p"
      ],
      [
        "ĠF",
        "ork"
      ],
      [
        "2",
        "6"
      ],
      [
        "il",
        "l"
      ],
      [
        "i",
        "c"
      ],
      [
        "2",
        "8"
      ],
      [
        "Ġc",
        "are"
      ],
      [
        "u",
        "m"
      ],
      [
        "2",
        "5"
      ],
      [
        "ed",
        "ar"
      ],
      [
        "ĠC",
        "edar"
      ],
      [
        "Ġ",
        "Y"
      ],
      [
        "ĠS",
        "i"
      ],
      [
        "ab",
        "y"
      ],
      [
        "ĠW",
        "ater"
      ],
      [
        "on",
        "si"
      ],
      [
        "2",
        "4"
      ],
      [
        "Ġ",
        "g"
      ],
      [
        "r",
        "g"
      ],
      [
        "2",
        "7"
      ],
      [
        "ice",
        "s"
      ],
      [
        "Ġ2",
        "0"
      ],
      [
        "k",
        "ed"
      ],
      [
        "ĠSi",
        "ze"
      ],
      [
        "2",
        "9"
      ],
      [
        "we",
        "et"
      ],
      [
        "ilter",
        "ed"
      ],
      [
        "ĠF",
        "iltered"
      ],
      [
        "Ġb",
        "everages"
      ],
      [
        "i",
        "um"
      ],
      [
        "Ġa",
        "s"
      ],
      [
        "Ġp",
        "art"
      ],
      [
        "ĠSt",
        "ock"
      ],
      [
        "Ġfl",
        "our"
      ],
      [
        "as",
        "on"
      ],
      [
        "ĠSe",
        "ason"
      ],
      [
        "les",
        "s"
      ],
      [
        "ar",
        "d"
      ],
      [
        "and",
        "ard"
      ],
      [
        "o",
        "l"
      ],
      [
        "Ġre",
        "ordered"
      ],
      [
        "e",
        "s"
      ],
      [
        "v",
        "ie"
      ],
      [
        "vie",
        "w"
      ],
      [
        "Ġcustom",
        "er"
      ],
      [
        "a",
        "iry"
      ],
      [
        "Ġd",
        "airy"
      ],
      [
        "ure",
        "s"
      ],
      [
        "ĠCult",
        "ures"
      ],
      [
        "v",
        "ail"
      ],
      [
        "ĠF",
        "avor"
      ],
      [
        "Ġ6",
        "4"
      ],
      [
        "ĠFavor",
        "ite"
      ],
      [
        "m",
        "on"
      ],
      [
        "are",
        "ly"
      ],
      [
        "m",
        "s"
      ],
      [
        "n",
        "e"
      ],
      [
        "p",
        "ur"
      ],
      [
        "Ġ",
        "it"
      ],
      [
        "Ġ",
        "ite"
      ],
      [
        "Ġa",
        "is"
      ],
      [
        "ce",
        "i"
      ],
      [
        "as",
        "ed"
      ],
      [
        "ĠO",
        "ne"
      ],
      [
        "ch",
        "ased"
      ],
      [
        "pur",
        "chased"
      ],
      [
        "Ġit",
        "s"
      ],
      [
        "Ġite",
        "ms"
      ],
      [
        "Ġais",
        "le"
      ],
      [
        "5",
        "4"
      ],
      [
        "R",
        "e"
      ],
      [
        "igh",
        "ly"
      ],
      [
        "c",
        "ently"
      ],
      [
        "at",
        "al"
      ],
      [
        "Ġa",
        "dd"
      ],
      [
        "Ġc",
        "atal"
      ],
      [
        "ĠCream",
        "y"
      ],
      [
        "Ġcatal",
        "og"
      ],
      [
        "p",
        "s"
      ],
      [
        "Ġl",
        "imited"
      ],
      [
        "5",
        "3"
      ],
      [
        "it",
        "y"
      ],
      [
        "e",
        "ast"
      ],
      [
        "Ġb",
        "akery"
      ],
      [
        "ĠY",
        "east"
      ],
      [
        "onsi",
        "st"
      ],
      [
        "5",
        "7"
      ],
      [
        "e",
        "ll"
      ],
      [
        "at",
        "o"
      ],
      [
        "5",
        "9"
      ],
      [
        "Ġg",
        "al"
      ],
      [
        "ĠO",
        "il"
      ],
      [
        "3",
        "6"
      ],
      [
        "5",
        "5"
      ],
      [
        "4",
        "8"
      ],
      [
        "ĠSp",
        "ices"
      ],
      [
        "3",
        "9"
      ],
      [
        "ĠL",
        "ow"
      ],
      [
        "3",
        "1"
      ],
      [
        "4",
        "9"
      ],
      [
        "4",
        "7"
      ],
      [
        "Ġs",
        "o"
      ],
      [
        "as",
        "h"
      ],
      [
        "r",
        "o"
      ],
      [
        "4",
        "6"
      ],
      [
        "i",
        "x"
      ],
      [
        "ĠV",
        "i"
      ],
      [
        "3",
        "8"
      ],
      [
        "5",
        "8"
      ],
      [
        "5",
        "6"
      ],
      [
        "en",
        "ed"
      ],
      [
        "ĠC",
        "h"
      ],
      [
        "weet",
        "ened"
      ],
      [
        "4",
        "3"
      ],
      [
        "is",
        "h"
      ],
      [
        "i",
        "ps"
      ],
      [
        "3",
        "7"
      ],
      [
        "ĠSo",
        "y"
      ],
      [
        "e",
        "se"
      ],
      [
        "he",
        "ese"
      ],
      [
        "3",
        "3"
      ],
      [
        "ĠB",
        "aby"
      ],
      [
        "a",
        "p"
      ],
      [
        "e",
        "e"
      ],
      [
        "Ġ",
        "me"
      ],
      [
        "Ġme",
        "at"
      ],
      [
        "3",
        "5"
      ],
      [
        "4",
        "4"
      ],
      [
        "Ġ",
        "h"
      ],
      [
        "Ġs",
        "nacks"
      ],
      [
        "5",
        "1"
      ],
      [
        "ĠT",
        "o"
      ],
      [
        "ean",
        "ut"
      ],
      [
        "4",
        "5"
      ],
      [
        "ĠGrain",
        "s"
      ],
      [
        "ĠSeason",
        "ing"
      ],
      [
        "3",
        "2"
      ],
      [
        "ĠS",
        "h"
      ],
      [
        "i",
        "al"
      ],
      [
        "3",
        "4"
      ],
      [
        "5",
        "2"
      ],
      [
        "Ġ",
        "Z"
      ],
      [
        "3",
        "0"
      ],
      [
        "Ġp",
        "o"
      ],
      [
        "ti",
        "ve"
      ],
      [
        "ĠL",
        "ight"
      ],
      [
        "ĠLight",
        "ly"
      ],
      [
        "ĠM",
        "in"
      ],
      [
        "Ġ5",
        "0"
      ],
      [
        "ix",
        "ed"
      ],
      [
        "4",
        "1"
      ],
      [
        "a",
        "c"
      ],
      [
        "4",
        "2"
      ],
      [
        "ĠP",
        "ack"
      ],
      [
        "Ġ",
        "E"
      ],
      [
        "al",
        "l"
      ],
      [
        "a",
        "in"
      ],
      [
        "8",
        "7"
      ],
      [
        "ĠP",
        "eanut"
      ],
      [
        "m",
        "ul"
      ],
      [
        "mul",
        "a"
      ],
      [
        "Ġp",
        "ast"
      ],
      [
        "ĠC",
        "l"
      ],
      [
        "b",
        "er"
      ],
      [
        "s",
        "p"
      ],
      [
        "Ġ",
        "ho"
      ],
      [
        "use",
        "hold"
      ],
      [
        "ater",
        "ial"
      ],
      [
        "Ġm",
        "aterial"
      ],
      [
        "Ġho",
        "usehold"
      ],
      [
        "Ġmaterial",
        "s"
      ],
      [
        "en",
        "er"
      ],
      [
        "Ġfor",
        "mula"
      ],
      [
        "9",
        "7"
      ],
      [
        "i",
        "tion"
      ],
      [
        "af",
        "f"
      ],
      [
        "Ġm",
        "ixed"
      ],
      [
        "an",
        "ce"
      ],
      [
        "of",
        "t"
      ],
      [
        "re",
        "e"
      ],
      [
        "t",
        "s"
      ],
      [
        "t",
        "ra"
      ],
      [
        "x",
        "tra"
      ],
      [
        "Ġp",
        "ersonal"
      ],
      [
        "rg",
        "in"
      ],
      [
        "ĠVi",
        "rgin"
      ],
      [
        "ĠE",
        "xtra"
      ],
      [
        "ĠRe",
        "ad"
      ],
      [
        "ĠRead",
        "y"
      ],
      [
        "Ġ3",
        "1"
      ],
      [
        "8",
        "8"
      ],
      [
        "si",
        "c"
      ],
      [
        "as",
        "sic"
      ],
      [
        "he",
        "ll"
      ],
      [
        "ĠCl",
        "assic"
      ],
      [
        "Ġc",
        "h"
      ],
      [
        "7",
        "9"
      ],
      [
        "Ġ3",
        "3"
      ],
      [
        "ol",
        "i"
      ],
      [
        "Ġf",
        "r"
      ],
      [
        "s",
        "an"
      ],
      [
        "Ġt",
        "h"
      ],
      [
        "ĠC",
        "ho"
      ],
      [
        "e",
        "afood"
      ],
      [
        "Ġs",
        "eafood"
      ],
      [
        "ra",
        "is"
      ],
      [
        "ĠS",
        "od"
      ],
      [
        "Ġm",
        "o"
      ],
      [
        "ĠSod",
        "ium"
      ],
      [
        "7",
        "8"
      ],
      [
        "Ġf",
        "ar"
      ],
      [
        "ĠL",
        "imited"
      ],
      [
        "c",
        "c"
      ],
      [
        "p",
        "end"
      ],
      [
        "Ġa",
        "cc"
      ],
      [
        "Ġp",
        "ick"
      ],
      [
        "ord",
        "ing"
      ],
      [
        "Ġde",
        "pend"
      ],
      [
        "Ġre",
        "view"
      ],
      [
        "Ġacc",
        "ording"
      ],
      [
        "Ġdepend",
        "able"
      ],
      [
        "Ġreview",
        "s"
      ],
      [
        "Ġ",
        "line"
      ],
      [
        "ĠStock",
        "ed"
      ],
      [
        "Ġline",
        "up"
      ],
      [
        "ĠW",
        "ash"
      ],
      [
        "8",
        "6"
      ],
      [
        "Ġnut",
        "s"
      ],
      [
        "ĠT",
        "ree"
      ],
      [
        "ill",
        "a"
      ],
      [
        "ĠS",
        "oft"
      ],
      [
        "an",
        "ic"
      ],
      [
        "ĠO",
        "rg"
      ],
      [
        "om",
        "ato"
      ],
      [
        "ĠOrg",
        "anic"
      ],
      [
        "er",
        "ing"
      ],
      [
        "ĠA",
        "vail"
      ],
      [
        "Ġord",
        "ering"
      ],
      [
        "Ġst",
        "andard"
      ],
      [
        "ĠPeanut",
        "s"
      ],
      [
        "ĠAvail",
        "able"
      ],
      [
        "a",
        "g"
      ],
      [
        "Ġ1",
        "9"
      ],
      [
        "9",
        "8"
      ],
      [
        "ĠSt",
        "e"
      ],
      [
        "C",
        "le"
      ],
      [
        "D",
        "i"
      ],
      [
        "t",
        "in"
      ],
      [
        "u",
        "ing"
      ],
      [
        "Ġ",
        "I"
      ],
      [
        "on",
        "tin"
      ],
      [
        "sc",
        "ontin"
      ],
      [
        "ar",
        "ance"
      ],
      [
        "ĠSo",
        "on"
      ],
      [
        "Cle",
        "arance"
      ],
      [
        "Di",
        "scontin"
      ],
      [
        "Discontin",
        "uing"
      ],
      [
        "00",
        "02"
      ],
      [
        "001",
        "6"
      ],
      [
        "7",
        "6"
      ],
      [
        "S",
        "hopp"
      ],
      [
        "v",
        "ent"
      ],
      [
        "Ġin",
        "vent"
      ],
      [
        "ĠSh",
        "ips"
      ],
      [
        "Shopp",
        "er"
      ],
      [
        "Ġinvent",
        "ory"
      ],
      [
        "N",
        "ew"
      ],
      [
        "n",
        "ing"
      ],
      [
        "q",
        "u"
      ],
      [
        "t",
        "ur"
      ],
      [
        "Ġre",
        "tur"
      ],
      [
        "ĠFre",
        "qu"
      ],
      [
        "Ġretur",
        "ning"
      ],
      [
        "ĠFrequ",
        "ently"
      ],
      [
        "r",
        "ated"
      ],
      [
        "Un",
        "rated"
      ],
      [
        "l",
        "ut"
      ],
      [
        "ĠG",
        "lut"
      ],
      [
        "ĠGlut",
        "en"
      ],
      [
        "C",
        "ur"
      ],
      [
        "r",
        "ent"
      ],
      [
        "ĠR",
        "arely"
      ],
      [
        "Cur",
        "rent"
      ],
      [
        "m",
        "ium"
      ],
      [
        "ĠPre",
        "mium"
      ],
      [
        "Ġ",
        "less"
      ],
      [
        "re",
        "purchased"
      ],
      [
        "S",
        "t"
      ],
      [
        "v",
        "ed"
      ],
      [
        "ĠRe",
        "cei"
      ],
      [
        "Ġfr",
        "om"
      ],
      [
        "St",
        "andard"
      ],
      [
        "ĠRecei",
        "ved"
      ],
      [
        "H",
        "ighly"
      ],
      [
        "ĠP",
        "ick"
      ],
      [
        "Ġ(",
        "#"
      ],
      [
        "8",
        "9"
      ],
      [
        "Ġs",
        "p"
      ],
      [
        "Ġn",
        "ew"
      ],
      [
        "ĠA",
        "dd"
      ],
      [
        "Re",
        "gular"
      ],
      [
        "Re",
        "cently"
      ],
      [
        "Ġadd",
        "ition"
      ],
      [
        "Ġnew",
        "er"
      ],
      [
        "ĠAdd",
        "ed"
      ],
      [
        "L",
        "imited"
      ],
      [
        "ĠS",
        "m"
      ],
      [
        "si",
        "tive"
      ],
      [
        "al",
        "ly"
      ],
      [
        "Ġre",
        "cei"
      ],
      [
        "ĠG",
        "ener"
      ],
      [
        "ve",
        "s"
      ],
      [
        "Ġpo",
        "sitive"
      ],
      [
        "Ġrecei",
        "ves"
      ],
      [
        "ĠGener",
        "ally"
      ],
      [
        "C",
        "ustom"
      ],
      [
        "Ġ",
        "is"
      ],
      [
        "ist",
        "ing"
      ],
      [
        "Ġl",
        "isting"
      ],
      [
        "Ġst",
        "ill"
      ],
      [
        "Ġth",
        "is"
      ],
      [
        "Custom",
        "er"
      ],
      [
        "Ġ2",
        "5"
      ],
      [
        "Ġre",
        "purchased"
      ],
      [
        "Ġmo",
        "st"
      ],
      [
        "9",
        "9"
      ],
      [
        "P",
        "op"
      ],
      [
        "R",
        "arely"
      ],
      [
        "ĠRe",
        "ordered"
      ],
      [
        "ĠRe",
        "cently"
      ],
      [
        "ick",
        "en"
      ],
      [
        "Ġadd",
        "ed"
      ],
      [
        "ĠCho",
        "ice"
      ],
      [
        "ĠWash",
        "ed"
      ],
      [
        "Pop",
        "ular"
      ],
      [
        "T",
        "op"
      ],
      [
        "ĠS",
        "l"
      ],
      [
        "6",
        "4"
      ],
      [
        "6",
        "2"
      ],
      [
        "Ġf",
        "ut"
      ],
      [
        "il",
        "ity"
      ],
      [
        "Ġa",
        "vail"
      ],
      [
        "Ġc",
        "onsist"
      ],
      [
        "Ġ2",
        "6"
      ],
      [
        "al",
        "ity"
      ],
      [
        "Ġqu",
        "ality"
      ],
      [
        "ab",
        "ility"
      ],
      [
        "ĠMar",
        "ked"
      ],
      [
        "Ġh",
        "ighly"
      ],
      [
        "Ġfut",
        "ure"
      ],
      [
        "Ġavail",
        "ability"
      ],
      [
        "Ġconsist",
        "ent"
      ],
      [
        "L",
        "ow"
      ],
      [
        "B",
        "e"
      ],
      [
        "ĠSe",
        "ller"
      ],
      [
        "Be",
        "st"
      ],
      [
        "ĠMin",
        "i"
      ],
      [
        "c",
        "om"
      ],
      [
        "f",
        "t"
      ],
      [
        "m",
        "ended"
      ],
      [
        "pe",
        "at"
      ],
      [
        "Ġre",
        "com"
      ],
      [
        "Ġre",
        "peat"
      ],
      [
        "ĠO",
        "ft"
      ],
      [
        "Ġrecom",
        "mended"
      ],
      [
        "ĠOft",
        "en"
      ],
      [
        "7",
        "4"
      ],
      [
        "W",
        "ell"
      ],
      [
        "ĠRe",
        "view"
      ],
      [
        "ĠReview",
        "ed"
      ],
      [
        "6",
        "5"
      ],
      [
        "9",
        "4"
      ],
      [
        "Ġp",
        "rais"
      ],
      [
        "ĠC",
        "onsist"
      ],
      [
        "Ġprais",
        "ed"
      ],
      [
        "ĠConsist",
        "ently"
      ],
      [
        "i",
        "ked"
      ],
      [
        "Ġl",
        "iked"
      ],
      [
        "ĠW",
        "ell"
      ],
      [
        "k",
        "in"
      ],
      [
        "ĠS",
        "kin"
      ],
      [
        "000",
        "6"
      ],
      [
        "7",
        "7"
      ],
      [
        "8",
        "2"
      ],
      [
        "e",
        "ine"
      ],
      [
        "ĠC",
        "aff"
      ],
      [
        "ur",
        "t"
      ],
      [
        "og",
        "urt"
      ],
      [
        "ĠCaff",
        "eine"
      ],
      [
        "9",
        "5"
      ],
      [
        "9",
        "6"
      ],
      [
        "ĠP",
        "ul"
      ],
      [
        "ĠPul",
        "p"
      ],
      [
        "7",
        "5"
      ],
      [
        "ĠS",
        "hell"
      ],
      [
        "er",
        "o"
      ],
      [
        "ut",
        "ter"
      ],
      [
        "ĠZ",
        "ero"
      ],
      [
        "l",
        "ed"
      ],
      [
        "et",
        "s"
      ],
      [
        "Ġ2",
        "3"
      ],
      [
        "ug",
        "h"
      ],
      [
        "9",
        "1"
      ],
      [
        "n",
        "am"
      ],
      [
        "7",
        "2"
      ],
      [
        "8",
        "4"
      ],
      [
        "s",
        "weetened"
      ],
      [
        "ĠUn",
        "sweetened"
      ],
      [
        "7",
        "3"
      ],
      [
        "6",
        "1"
      ],
      [
        "u",
        "ice"
      ],
      [
        "ri",
        "sp"
      ],
      [
        "ĠC",
        "risp"
      ],
      [
        "ĠCrisp",
        "y"
      ],
      [
        "t",
        "al"
      ],
      [
        "ĠI",
        "tal"
      ],
      [
        "8",
        "5"
      ],
      [
        "Ġ3",
        "0"
      ],
      [
        "ber",
        "ry"
      ],
      [
        "at",
        "ch"
      ],
      [
        "ĠS",
        "weetened"
      ],
      [
        "ĠB",
        "atch"
      ],
      [
        "ur",
        "ed"
      ],
      [
        "ĠRi",
        "pe"
      ],
      [
        "ĠCult",
        "ured"
      ],
      [
        "ĠSm",
        "all"
      ],
      [
        "t",
        "ato"
      ],
      [
        "Ġb",
        "re"
      ],
      [
        "ĠB",
        "re"
      ],
      [
        "ĠSo",
        "ur"
      ],
      [
        "6",
        "9"
      ],
      [
        "Ġc",
        "heese"
      ],
      [
        "ĠC",
        "heese"
      ],
      [
        "ĠSalt",
        "ed"
      ],
      [
        "a",
        "ce"
      ],
      [
        "f",
        "ace"
      ],
      [
        "ur",
        "face"
      ],
      [
        "7",
        "1"
      ],
      [
        "00",
        "00"
      ],
      [
        "6",
        "7"
      ],
      [
        "e",
        "mon"
      ],
      [
        "ĠL",
        "emon"
      ],
      [
        "an",
        "illa"
      ],
      [
        "9",
        "3"
      ],
      [
        "ee",
        "f"
      ],
      [
        "9",
        "2"
      ],
      [
        "8",
        "1"
      ],
      [
        "6",
        "3"
      ],
      [
        "ĠC",
        "r"
      ],
      [
        "r",
        "ti"
      ],
      [
        "ĠA",
        "rti"
      ],
      [
        "ĠArti",
        "san"
      ],
      [
        "am",
        "able"
      ],
      [
        "ĠSte",
        "amable"
      ],
      [
        "a",
        "ch"
      ],
      [
        "in",
        "ach"
      ],
      [
        "000",
        "7"
      ],
      [
        "ic",
        "ed"
      ],
      [
        "ĠSl",
        "iced"
      ],
      [
        "o",
        "k"
      ],
      [
        "Ġb",
        "aby"
      ],
      [
        "001",
        "9"
      ],
      [
        "o",
        "s"
      ],
      [
        "ĠH",
        "eat"
      ],
      [
        "4",
        "0"
      ],
      [
        "8",
        "3"
      ],
      [
        "Ġ3",
        "4"
      ],
      [
        "6",
        "6"
      ],
      [
        "Ġ",
        "ro"
      ],
      [
        "ĠR",
        "o"
      ],
      [
        "6",
        "8"
      ],
      [
        "ĠH",
        "e"
      ],
      [
        "t",
        "t"
      ],
      [
        "ĠB",
        "ak"
      ],
      [
        "ĠBak",
        "ed"
      ],
      [
        "5",
        "0"
      ],
      [
        "e",
        "al"
      ],
      [
        "ĠS",
        "urface"
      ],
      [
        "ĠF",
        "at"
      ],
      [
        "001",
        "7"
      ],
      [
        "ĠT",
        "h"
      ],
      [
        "ĠS",
        "c"
      ],
      [
        "ĠF",
        "ish"
      ],
      [
        "ĠSp",
        "ain"
      ],
      [
        "Ġ2",
        "2"
      ],
      [
        "ra",
        "n"
      ],
      [
        "000",
        "9"
      ],
      [
        "u",
        "c"
      ],
      [
        "al",
        "f"
      ],
      [
        "e",
        "x"
      ],
      [
        "ent",
        "le"
      ],
      [
        "ĠM",
        "ex"
      ],
      [
        "ĠG",
        "entle"
      ],
      [
        "Ġs",
        "al"
      ],
      [
        "001",
        "8"
      ],
      [
        "ic",
        "o"
      ],
      [
        "ĠMex",
        "ico"
      ],
      [
        "e",
        "y"
      ],
      [
        "k",
        "ey"
      ],
      [
        "ur",
        "key"
      ],
      [
        "un",
        "ch"
      ],
      [
        "ac",
        "o"
      ],
      [
        "ĠCr",
        "unch"
      ],
      [
        "ĠCrunch",
        "y"
      ],
      [
        "at",
        "s"
      ],
      [
        "ll",
        "ed"
      ],
      [
        "ĠN",
        "ew"
      ],
      [
        "ĠZ",
        "eal"
      ],
      [
        "ĠZeal",
        "and"
      ],
      [
        "l",
        "s"
      ],
      [
        "Ġ",
        "o"
      ],
      [
        "an",
        "an"
      ],
      [
        "ĠB",
        "one"
      ],
      [
        "ĠCo",
        "ok"
      ],
      [
        "ĠBone",
        "less"
      ],
      [
        "Ġ2",
        "7"
      ],
      [
        "on",
        "g"
      ],
      [
        "ĠSe",
        "a"
      ],
      [
        "Ġ2",
        "8"
      ],
      [
        "ĠM",
        "ul"
      ],
      [
        "ĠMul",
        "ti"
      ],
      [
        "f",
        "ish"
      ],
      [
        "ĠSeason",
        "ed"
      ],
      [
        "ĠShell",
        "fish"
      ],
      [
        "ar",
        "ty"
      ],
      [
        "ĠP",
        "arty"
      ],
      [
        "000",
        "8"
      ],
      [
        "ĠItal",
        "y"
      ],
      [
        "ĠSc",
        "ent"
      ],
      [
        "ĠC",
        "an"
      ],
      [
        "ad",
        "a"
      ],
      [
        "ĠCan",
        "ada"
      ],
      [
        "l",
        "ack"
      ],
      [
        "ean",
        "s"
      ],
      [
        "d",
        "r"
      ],
      [
        "y",
        "dr"
      ],
      [
        "at",
        "ing"
      ],
      [
        "Ġt",
        "omato"
      ],
      [
        "ĠH",
        "ydr"
      ],
      [
        "ĠT",
        "omato"
      ],
      [
        "ĠHydr",
        "ating"
      ],
      [
        "h",
        "et"
      ],
      [
        "r",
        "up"
      ],
      [
        "y",
        "rup"
      ],
      [
        "ail",
        "and"
      ],
      [
        "ag",
        "s"
      ],
      [
        "ag",
        "het"
      ],
      [
        "ĠTh",
        "ailand"
      ],
      [
        "aghet",
        "ti"
      ],
      [
        "a",
        "uce"
      ],
      [
        "ĠL",
        "ean"
      ],
      [
        "Ġ2",
        "1"
      ],
      [
        "u",
        "mb"
      ],
      [
        "Ġ3",
        "7"
      ],
      [
        "001",
        "3"
      ],
      [
        "pp",
        "les"
      ],
      [
        "uc",
        "umb"
      ],
      [
        "ucumb",
        "ers"
      ],
      [
        "Ġ",
        "ma"
      ],
      [
        "Ġ5",
        "1"
      ],
      [
        "er",
        "u"
      ],
      [
        "ĠP",
        "eru"
      ],
      [
        "il",
        "e"
      ],
      [
        "et",
        "nam"
      ],
      [
        "ĠVi",
        "etnam"
      ],
      [
        "ĠCh",
        "ile"
      ],
      [
        "tato",
        "es"
      ],
      [
        "Ġ2",
        "9"
      ],
      [
        "ent",
        "ed"
      ],
      [
        "sc",
        "ented"
      ],
      [
        "Ġ3",
        "5"
      ],
      [
        "ĠUn",
        "scented"
      ],
      [
        "Ġs",
        "h"
      ],
      [
        "d",
        "ar"
      ],
      [
        "l",
        "mon"
      ],
      [
        "ed",
        "dar"
      ],
      [
        "ar",
        "p"
      ],
      [
        "ma",
        "ine"
      ],
      [
        "art",
        "s"
      ],
      [
        "ad",
        "e"
      ],
      [
        "ĠCh",
        "icken"
      ],
      [
        "Ġch",
        "icken"
      ],
      [
        "lmon",
        "d"
      ],
      [
        "tt",
        "age"
      ],
      [
        "anan",
        "as"
      ],
      [
        "001",
        "4"
      ],
      [
        "u",
        "ty"
      ],
      [
        "ĠD",
        "uty"
      ],
      [
        "av",
        "y"
      ],
      [
        "ĠHe",
        "avy"
      ],
      [
        "c",
        "oli"
      ],
      [
        "r",
        "oc"
      ],
      [
        "or",
        "ets"
      ],
      [
        "000",
        "3"
      ],
      [
        "ap",
        "er"
      ],
      [
        "ĠMin",
        "t"
      ],
      [
        "ĠSkin",
        "less"
      ],
      [
        "roc",
        "coli"
      ],
      [
        "ĠP",
        "o"
      ],
      [
        "r",
        "in"
      ],
      [
        "ort",
        "s"
      ],
      [
        "up",
        "s"
      ],
      [
        "rin",
        "k"
      ],
      [
        "ĠS",
        "ensi"
      ],
      [
        "ĠSensi",
        "tive"
      ],
      [
        "ak",
        "es"
      ],
      [
        "y",
        "ogurt"
      ],
      [
        "Ġ",
        "yogurt"
      ],
      [
        "000",
        "4"
      ],
      [
        "ĠY",
        "ogurt"
      ],
      [
        "a",
        "ugh"
      ],
      [
        "w",
        "ber"
      ],
      [
        "ri",
        "es"
      ],
      [
        "il",
        "d"
      ],
      [
        "ĠC",
        "augh"
      ],
      [
        "ra",
        "wber"
      ],
      [
        "ĠW",
        "ild"
      ],
      [
        "ĠCaugh",
        "t"
      ],
      [
        "rawber",
        "ries"
      ],
      [
        "on",
        "ut"
      ],
      [
        "ĠP",
        "ee"
      ],
      [
        "oc",
        "onut"
      ],
      [
        "Ġ4",
        "8"
      ],
      [
        "ĠPee",
        "led"
      ],
      [
        "ĠF",
        "l"
      ],
      [
        "e",
        "k"
      ],
      [
        "z",
        "are"
      ],
      [
        "ri",
        "oc"
      ],
      [
        "oz",
        "zare"
      ],
      [
        "un",
        "s"
      ],
      [
        "Ġb",
        "utter"
      ],
      [
        "ll",
        "a"
      ],
      [
        "ĠB",
        "utter"
      ],
      [
        "ĠGre",
        "ek"
      ],
      [
        "rioc",
        "he"
      ],
      [
        "ozzare",
        "lla"
      ],
      [
        "s",
        "af"
      ],
      [
        "Ġm",
        "ilk"
      ],
      [
        "saf",
        "e"
      ],
      [
        "e",
        "a"
      ],
      [
        "v",
        "oc"
      ],
      [
        "Ġ",
        "rice"
      ],
      [
        "or",
        "an"
      ],
      [
        "ĠR",
        "ice"
      ],
      [
        "Ġ4",
        "9"
      ],
      [
        "ad",
        "os"
      ],
      [
        "ran",
        "berry"
      ],
      [
        "voc",
        "ados"
      ],
      [
        "b",
        "ly"
      ],
      [
        "c",
        "y"
      ],
      [
        "c",
        "ed"
      ],
      [
        "c",
        "led"
      ],
      [
        "ĠRe",
        "sp"
      ],
      [
        "ĠRe",
        "cy"
      ],
      [
        "onsi",
        "bly"
      ],
      [
        "ĠSour",
        "ced"
      ],
      [
        "ĠResp",
        "onsibly"
      ],
      [
        "ĠRecy",
        "cled"
      ],
      [
        "J",
        "uice"
      ],
      [
        "j",
        "uice"
      ],
      [
        "Ġ",
        "Juice"
      ],
      [
        "Ġ",
        "juice"
      ],
      [
        "Ġ6",
        "2"
      ],
      [
        "Ġ3",
        "6"
      ],
      [
        "re",
        "en"
      ],
      [
        "Ġ6",
        "1"
      ],
      [
        "Ġ6",
        "5"
      ],
      [
        "Ġg",
        "reen"
      ],
      [
        "d",
        "o"
      ],
      [
        "o",
        "af"
      ],
      [
        "do",
        "ugh"
      ],
      [
        "k",
        "l"
      ],
      [
        "par",
        "kl"
      ],
      [
        "ort",
        "ill"
      ],
      [
        "parkl",
        "ing"
      ],
      [
        "ortill",
        "as"
      ],
      [
        "e",
        "as"
      ],
      [
        "t",
        "able"
      ],
      [
        "ge",
        "table"
      ],
      [
        "ĠA",
        "nd"
      ],
      [
        "Ġ6",
        "7"
      ],
      [
        "getable",
        "s"
      ],
      [
        "f",
        "f"
      ],
      [
        "u",
        "ff"
      ],
      [
        "v",
        "anilla"
      ],
      [
        "Ġ",
        "vanilla"
      ],
      [
        "in",
        "s"
      ],
      [
        "ge",
        "ts"
      ],
      [
        "it",
        "a"
      ],
      [
        "ĠV",
        "anilla"
      ],
      [
        "ug",
        "gets"
      ],
      [
        "ock",
        "ets"
      ],
      [
        "uff",
        "ins"
      ],
      [
        "Ġb",
        "eef"
      ],
      [
        "ĠB",
        "eef"
      ],
      [
        "l",
        "a"
      ],
      [
        "Ġs",
        "our"
      ],
      [
        "Ġ4",
        "5"
      ],
      [
        "s",
        "a"
      ],
      [
        "Ġ4",
        "6"
      ],
      [
        "Ġ4",
        "7"
      ],
      [
        "i",
        "oli"
      ],
      [
        "ĠSp",
        "inach"
      ],
      [
        "Ġsp",
        "inach"
      ],
      [
        "Ġ5",
        "3"
      ],
      [
        "f",
        "ee"
      ],
      [
        "l",
        "ain"
      ],
      [
        "age",
        "ls"
      ],
      [
        "of",
        "fee"
      ],
      [
        "is",
        "san"
      ],
      [
        "ro",
        "issan"
      ],
      [
        "roissan",
        "ts"
      ],
      [
        "Ġ5",
        "4"
      ],
      [
        "Ġ5",
        "5"
      ],
      [
        "Ġ5",
        "7"
      ],
      [
        "Ġ7",
        "1"
      ],
      [
        "o",
        "tion"
      ],
      [
        "Ġ6",
        "8"
      ],
      [
        "Ġ4",
        "2"
      ],
      [
        "Ġ5",
        "6"
      ],
      [
        "in",
        "nam"
      ],
      [
        "innam",
        "on"
      ],
      [
        "e",
        "pp"
      ],
      [
        "i",
        "z"
      ],
      [
        "z",
        "a"
      ],
      [
        "er",
        "on"
      ],
      [
        "in",
        "ner"
      ],
      [
        "ll",
        "s"
      ],
      [
        "Ġ6",
        "0"
      ],
      [
        "epp",
        "eron"
      ],
      [
        "iz",
        "za"
      ],
      [
        "epperon",
        "i"
      ],
      [
        "Ġc",
        "ream"
      ],
      [
        "Ġ6",
        "3"
      ],
      [
        "Ġ6",
        "6"
      ],
      [
        "Ġw",
        "hole"
      ],
      [
        "il",
        "le"
      ],
      [
        "Ġ5",
        "2"
      ],
      [
        "ille",
        "ts"
      ],
      [
        "Ġ5",
        "8"
      ],
      [
        "v",
        "ol"
      ],
      [
        "Ġ4",
        "4"
      ],
      [
        "ro",
        "vol"
      ],
      [
        "rovol",
        "one"
      ],
      [
        "Ġ4",
        "0"
      ],
      [
        "Ġ5",
        "9"
      ],
      [
        "Ġbre",
        "ad"
      ],
      [
        "ĠBre",
        "ad"
      ],
      [
        "o",
        "ked"
      ],
      [
        "Ġ3",
        "9"
      ],
      [
        "Ġ4",
        "3"
      ],
      [
        "ĠSo",
        "up"
      ],
      [
        "Ġso",
        "up"
      ],
      [
        "Ġ6",
        "9"
      ],
      [
        "001",
        "5"
      ],
      [
        "c",
        "or"
      ],
      [
        "op",
        "cor"
      ],
      [
        "opcor",
        "n"
      ],
      [
        "Ġ7",
        "0"
      ],
      [
        "000",
        "5"
      ],
      [
        "ack",
        "ers"
      ],
      [
        "ĠH",
        "alf"
      ],
      [
        "Ġh",
        "alf"
      ],
      [
        "aff",
        "les"
      ],
      [
        "ar",
        "s"
      ],
      [
        "Ġt",
        "urkey"
      ],
      [
        "ĠT",
        "urkey"
      ],
      [
        "ol",
        "a"
      ],
      [
        "Ġt",
        "aco"
      ],
      [
        "Ġs",
        "hell"
      ],
      [
        "ĠT",
        "aco"
      ],
      [
        "ĠShell",
        "s"
      ],
      [
        "Ġshell",
        "s"
      ],
      [
        "f",
        "ast"
      ],
      [
        "t",
        "os"
      ],
      [
        "ri",
        "tos"
      ],
      [
        "ur",
        "ritos"
      ],
      [
        "ak",
        "fast"
      ],
      [
        "Ġ7",
        "9"
      ],
      [
        "ĠO",
        "ats"
      ],
      [
        "ĠSo",
        "ap"
      ],
      [
        "Ġso",
        "ap"
      ],
      [
        "Ġro",
        "lled"
      ],
      [
        "ĠRo",
        "lled"
      ],
      [
        "Ġo",
        "ats"
      ],
      [
        "ĠCh",
        "ips"
      ],
      [
        "Ġch",
        "ips"
      ],
      [
        "i",
        "ve"
      ],
      [
        "l",
        "ive"
      ],
      [
        "t",
        "ze"
      ],
      [
        "w",
        "ist"
      ],
      [
        "Ġ",
        "oli"
      ],
      [
        "ra",
        "il"
      ],
      [
        "igh",
        "s"
      ],
      [
        "ĠO",
        "live"
      ],
      [
        "Ġo",
        "il"
      ],
      [
        "tze",
        "l"
      ],
      [
        "wist",
        "s"
      ],
      [
        "Ġoli",
        "ve"
      ],
      [
        "ĠL",
        "ong"
      ],
      [
        "Ġ3",
        "8"
      ],
      [
        "Ġgr",
        "ain"
      ],
      [
        "Ġl",
        "ong"
      ],
      [
        "b",
        "all"
      ],
      [
        "ac",
        "on"
      ],
      [
        "ball",
        "s"
      ],
      [
        "Ġ7",
        "2"
      ],
      [
        "Ġ7",
        "4"
      ],
      [
        "e",
        "ak"
      ],
      [
        "o",
        "und"
      ],
      [
        "Ġgr",
        "ound"
      ],
      [
        "ĠG",
        "ro"
      ],
      [
        "ort",
        "illa"
      ],
      [
        "Ġst",
        "eak"
      ],
      [
        "ĠSte",
        "ak"
      ],
      [
        "ĠGro",
        "und"
      ],
      [
        "a",
        "u"
      ],
      [
        "i",
        "an"
      ],
      [
        "s",
        "age"
      ],
      [
        "Ġ8",
        "2"
      ],
      [
        "ĠItal",
        "ian"
      ],
      [
        "au",
        "sage"
      ],
      [
        "oc",
        "ol"
      ],
      [
        "ie",
        "s"
      ],
      [
        "ocol",
        "ate"
      ],
      [
        "r",
        "ash"
      ],
      [
        "ri",
        "c"
      ],
      [
        "Ġb",
        "lack"
      ],
      [
        "Ġb",
        "eans"
      ],
      [
        "ĠB",
        "lack"
      ],
      [
        "ĠB",
        "eans"
      ],
      [
        "ab",
        "ric"
      ],
      [
        "Ġ8",
        "1"
      ],
      [
        "h",
        "p"
      ],
      [
        "h",
        "w"
      ],
      [
        "o",
        "t"
      ],
      [
        "p",
        "le"
      ],
      [
        "ĠS",
        "yrup"
      ],
      [
        "Ġb",
        "ags"
      ],
      [
        "ut",
        "hw"
      ],
      [
        "ĠB",
        "ags"
      ],
      [
        "ĠM",
        "ap"
      ],
      [
        "Ġs",
        "yrup"
      ],
      [
        "ast",
        "e"
      ],
      [
        "ĠSp",
        "aghetti"
      ],
      [
        "Ġsp",
        "aghetti"
      ],
      [
        "Ġma",
        "ple"
      ],
      [
        "hp",
        "aste"
      ],
      [
        "ot",
        "hpaste"
      ],
      [
        "uthw",
        "ash"
      ],
      [
        "ĠMap",
        "le"
      ],
      [
        "ĠS",
        "auce"
      ],
      [
        "ĠP",
        "ast"
      ],
      [
        "Ġs",
        "auce"
      ],
      [
        "Ġpast",
        "a"
      ],
      [
        "ĠPast",
        "a"
      ],
      [
        "l",
        "end"
      ],
      [
        "u",
        "it"
      ],
      [
        "z",
        "er"
      ],
      [
        "un",
        "a"
      ],
      [
        "Ġ",
        "min"
      ],
      [
        "Ġa",
        "pples"
      ],
      [
        "Ġc",
        "ucumbers"
      ],
      [
        "ĠC",
        "ucumbers"
      ],
      [
        "ĠA",
        "pples"
      ],
      [
        "Ġmin",
        "i"
      ],
      [
        "m",
        "p"
      ],
      [
        "ri",
        "mp"
      ],
      [
        "Ġp",
        "eanut"
      ],
      [
        "ĠS",
        "weet"
      ],
      [
        "Ġs",
        "weet"
      ],
      [
        "Ġpo",
        "tatoes"
      ],
      [
        "ĠPo",
        "tatoes"
      ],
      [
        "l",
        "o"
      ],
      [
        "o",
        "o"
      ],
      [
        "o",
        "il"
      ],
      [
        "r",
        "lo"
      ],
      [
        "s",
        "u"
      ],
      [
        "or",
        "tion"
      ],
      [
        "on",
        "ge"
      ],
      [
        "min",
        "um"
      ],
      [
        "amp",
        "oo"
      ],
      [
        "ĠSal",
        "mon"
      ],
      [
        "lu",
        "minum"
      ],
      [
        "ac",
        "ial"
      ],
      [
        "Ġsal",
        "mon"
      ],
      [
        "rlo",
        "in"
      ],
      [
        "su",
        "es"
      ],
      [
        "ortion",
        "s"
      ],
      [
        "onge",
        "s"
      ],
      [
        "Ġ",
        "le"
      ],
      [
        "Ġ",
        "he"
      ],
      [
        "Ġa",
        "lmond"
      ],
      [
        "ĠA",
        "lmond"
      ],
      [
        "ĠM",
        "ac"
      ],
      [
        "Ġ4",
        "1"
      ],
      [
        "mon",
        "ade"
      ],
      [
        "ĠCh",
        "eddar"
      ],
      [
        "ĠSh",
        "arp"
      ],
      [
        "Ġch",
        "eddar"
      ],
      [
        "ĠLemon",
        "ade"
      ],
      [
        "Ġro",
        "maine"
      ],
      [
        "ĠRo",
        "maine"
      ],
      [
        "ĠHe",
        "arts"
      ],
      [
        "Ġma",
        "c"
      ],
      [
        "Ġsh",
        "arp"
      ],
      [
        "Ġle",
        "monade"
      ],
      [
        "Ġhe",
        "arts"
      ],
      [
        "il",
        "et"
      ],
      [
        "Ġb",
        "ananas"
      ],
      [
        "ĠB",
        "ananas"
      ],
      [
        "Ġco",
        "ttage"
      ],
      [
        "ĠCo",
        "ttage"
      ],
      [
        "Ġ8",
        "0"
      ],
      [
        "d",
        "ition"
      ],
      [
        "w",
        "ab"
      ],
      [
        "on",
        "dition"
      ],
      [
        "Ġp",
        "aper"
      ],
      [
        "Ġb",
        "roccoli"
      ],
      [
        "ĠP",
        "aper"
      ],
      [
        "ĠB",
        "roccoli"
      ],
      [
        "Ġfl",
        "orets"
      ],
      [
        "tt",
        "on"
      ],
      [
        "ĠFl",
        "orets"
      ],
      [
        "wab",
        "s"
      ],
      [
        "ondition",
        "er"
      ],
      [
        "Ġc",
        "ups"
      ],
      [
        "Ġd",
        "rink"
      ],
      [
        "ĠC",
        "ups"
      ],
      [
        "ĠD",
        "rink"
      ],
      [
        "ĠSp",
        "orts"
      ],
      [
        "Ġsp",
        "orts"
      ],
      [
        "le",
        "an"
      ],
      [
        "we",
        "ls"
      ],
      [
        "Ġ7",
        "3"
      ],
      [
        "lean",
        "er"
      ],
      [
        "Ġc",
        "akes"
      ],
      [
        "ĠC",
        "akes"
      ],
      [
        "001",
        "2"
      ],
      [
        "ĠSt",
        "rawberries"
      ],
      [
        "od",
        "y"
      ],
      [
        "od",
        "oran"
      ],
      [
        "Ġst",
        "rawberries"
      ],
      [
        "op",
        "s"
      ],
      [
        "all",
        "ops"
      ],
      [
        "odoran",
        "t"
      ],
      [
        "Ġc",
        "oconut"
      ],
      [
        "ĠC",
        "oconut"
      ],
      [
        "Ġ7",
        "8"
      ],
      [
        "l",
        "ices"
      ],
      [
        "Ġb",
        "uns"
      ],
      [
        "Ġb",
        "rioche"
      ],
      [
        "ĠB",
        "uns"
      ],
      [
        "ĠB",
        "rioche"
      ],
      [
        "ĠM",
        "ozzarella"
      ],
      [
        "Ġs",
        "lices"
      ],
      [
        "ĠD",
        "e"
      ],
      [
        "Ġm",
        "ozzarella"
      ],
      [
        "ĠSl",
        "ices"
      ],
      [
        "Ġa",
        "vocados"
      ],
      [
        "Ġc",
        "ranberry"
      ],
      [
        "ĠC",
        "ranberry"
      ],
      [
        "ĠA",
        "vocados"
      ],
      [
        "Ġt",
        "ea"
      ],
      [
        "ĠT",
        "ea"
      ],
      [
        "a",
        "und"
      ],
      [
        "g",
        "ent"
      ],
      [
        "ter",
        "gent"
      ],
      [
        "aund",
        "ry"
      ],
      [
        "Ġ",
        "oran"
      ],
      [
        "ĠL",
        "oaf"
      ],
      [
        "Ġl",
        "oaf"
      ],
      [
        "ĠO",
        "ran"
      ],
      [
        "ĠSour",
        "dough"
      ],
      [
        "Ġsour",
        "dough"
      ],
      [
        "Ġoran",
        "ge"
      ],
      [
        "ĠOran",
        "ge"
      ],
      [
        "ĠS",
        "parkling"
      ],
      [
        "Ġt",
        "ortillas"
      ],
      [
        "Ġs",
        "parkling"
      ],
      [
        "ĠT",
        "ortillas"
      ],
      [
        "ĠFl",
        "our"
      ],
      [
        "a",
        "pe"
      ],
      [
        "e",
        "getables"
      ],
      [
        "Ġ",
        "ve"
      ],
      [
        "Ġp",
        "eas"
      ],
      [
        "ĠP",
        "eas"
      ],
      [
        "Ġgr",
        "ape"
      ],
      [
        "ĠM",
        "ixed"
      ],
      [
        "Ġ7",
        "5"
      ],
      [
        "ĠGra",
        "pe"
      ],
      [
        "ĠV",
        "egetables"
      ],
      [
        "Ġtomato",
        "es"
      ],
      [
        "ĠTomato",
        "es"
      ],
      [
        "Ġve",
        "getables"
      ],
      [
        "Ġp",
        "ita"
      ],
      [
        "Ġp",
        "ockets"
      ],
      [
        "Ġn",
        "uggets"
      ],
      [
        "Ġb",
        "lue"
      ],
      [
        "ĠP",
        "ita"
      ],
      [
        "ĠP",
        "ockets"
      ],
      [
        "ĠM",
        "uffins"
      ],
      [
        "ĠN",
        "uggets"
      ],
      [
        "Ġ7",
        "6"
      ],
      [
        "Ġm",
        "uffins"
      ],
      [
        "ĠBlue",
        "berry"
      ],
      [
        "Ġblue",
        "berry"
      ],
      [
        "Ġco",
        "la"
      ],
      [
        "rip",
        "s"
      ],
      [
        "ĠCo",
        "la"
      ],
      [
        "ĠSal",
        "sa"
      ],
      [
        "Ġ8",
        "3"
      ],
      [
        "Ġsal",
        "sa"
      ],
      [
        "v",
        "ioli"
      ],
      [
        "Ġ",
        "ra"
      ],
      [
        "ĠR",
        "av"
      ],
      [
        "Ġra",
        "violi"
      ],
      [
        "ĠRav",
        "ioli"
      ],
      [
        "t",
        "ed"
      ],
      [
        "Ġp",
        "lain"
      ],
      [
        "Ġc",
        "offee"
      ],
      [
        "Ġc",
        "roissants"
      ],
      [
        "Ġb",
        "agels"
      ],
      [
        "ĠP",
        "lain"
      ],
      [
        "ĠC",
        "offee"
      ],
      [
        "ĠC",
        "roissants"
      ],
      [
        "ĠB",
        "agels"
      ],
      [
        "Ġco",
        "ld"
      ],
      [
        "ĠCo",
        "ld"
      ],
      [
        "Ġbre",
        "w"
      ],
      [
        "ĠBre",
        "w"
      ],
      [
        "Ġsal",
        "ted"
      ],
      [
        "i",
        "a"
      ],
      [
        "il",
        "ap"
      ],
      [
        "ra",
        "b"
      ],
      [
        "ilap",
        "ia"
      ],
      [
        "ĠL",
        "otion"
      ],
      [
        "Ġl",
        "otion"
      ],
      [
        "a",
        "is"
      ],
      [
        "Ġ",
        "rais"
      ],
      [
        "Ġc",
        "innamon"
      ],
      [
        "ĠC",
        "innamon"
      ],
      [
        "ĠR",
        "ais"
      ],
      [
        "Ġrais",
        "in"
      ],
      [
        "ĠRais",
        "in"
      ],
      [
        "Ġp",
        "izza"
      ],
      [
        "Ġp",
        "epperoni"
      ],
      [
        "Ġd",
        "inner"
      ],
      [
        "ĠP",
        "izza"
      ],
      [
        "ĠP",
        "epperoni"
      ],
      [
        "ĠD",
        "inner"
      ],
      [
        "Ġro",
        "lls"
      ],
      [
        "ĠRo",
        "lls"
      ],
      [
        "Ġf",
        "illets"
      ],
      [
        "ĠF",
        "illets"
      ],
      [
        "Ġ8",
        "6"
      ],
      [
        "Ġ7",
        "7"
      ],
      [
        "Ġp",
        "rovolone"
      ],
      [
        "ĠP",
        "rovolone"
      ],
      [
        "m",
        "oked"
      ],
      [
        "gr",
        "ance"
      ],
      [
        "ĠF",
        "ra"
      ],
      [
        "Ġs",
        "moked"
      ],
      [
        "ĠSm",
        "oked"
      ],
      [
        "ĠFra",
        "grance"
      ],
      [
        "Ġ",
        "ice"
      ],
      [
        "ĠI",
        "ce"
      ],
      [
        "Ġp",
        "opcorn"
      ],
      [
        "ĠP",
        "opcorn"
      ],
      [
        "Ġ8",
        "4"
      ],
      [
        "r",
        "ackers"
      ],
      [
        "Ġc",
        "rackers"
      ],
      [
        "Ġd",
        "ish"
      ],
      [
        "ĠW",
        "affles"
      ],
      [
        "ĠH",
        "am"
      ],
      [
        "ĠD",
        "ish"
      ],
      [
        "Ġw",
        "heat"
      ],
      [
        "Ġw",
        "affles"
      ],
      [
        "Ġh",
        "am"
      ],
      [
        "Ġpo",
        "tato"
      ],
      [
        "ĠCr",
        "ackers"
      ],
      [
        "ĠPo",
        "tato"
      ],
      [
        "n",
        "ola"
      ],
      [
        "Ġp",
        "ork"
      ],
      [
        "Ġc",
        "ho"
      ],
      [
        "Ġb",
        "ars"
      ],
      [
        "ĠP",
        "ork"
      ],
      [
        "as",
        "y"
      ],
      [
        "an",
        "ola"
      ],
      [
        "ĠB",
        "ars"
      ],
      [
        "Ġgr",
        "anola"
      ],
      [
        "ĠG",
        "rip"
      ],
      [
        "Ġ8",
        "7"
      ],
      [
        "ĠGra",
        "nola"
      ],
      [
        "ĠE",
        "asy"
      ],
      [
        "ĠCho",
        "ps"
      ],
      [
        "Ġcho",
        "ps"
      ],
      [
        "Ġb",
        "urritos"
      ],
      [
        "ĠB",
        "urritos"
      ],
      [
        "Ġbre",
        "akfast"
      ],
      [
        "ĠBre",
        "akfast"
      ],
      [
        "re",
        "tzel"
      ],
      [
        "Ġp",
        "retzel"
      ],
      [
        "ĠM",
        "ix"
      ],
      [
        "Ġt",
        "rail"
      ],
      [
        "Ġt",
        "wists"
      ],
      [
        "ĠT",
        "rail"
      ],
      [
        "ĠT",
        "wists"
      ],
      [
        "ĠPre",
        "tzel"
      ],
      [
        "Ġm",
        "ix"
      ],
      [
        "Ġth",
        "ighs"
      ],
      [
        "ĠTh",
        "ighs"
      ],
      [
        "Ġb",
        "acon"
      ],
      [
        "ĠB",
        "acon"
      ],
      [
        "ĠH",
        "and"
      ],
      [
        "ĠMeat",
        "balls"
      ],
      [
        "Ġmeat",
        "balls"
      ],
      [
        "Ġh",
        "and"
      ],
      [
        "Ġ8",
        "5"
      ],
      [
        "Ġt",
        "ortilla"
      ],
      [
        "001",
        "49"
      ],
      [
        "ĠT",
        "ortilla"
      ],
      [
        "ĠS",
        "ausage"
      ],
      [
        "Ġ8",
        "9"
      ],
      [
        "Ġs",
        "ausage"
      ],
      [
        "Ġbre",
        "ast"
      ],
      [
        "ĠBre",
        "ast"
      ],
      [
        "Ġco",
        "ok"
      ],
      [
        "001",
        "53"
      ],
      [
        "ĠCh",
        "ocolate"
      ],
      [
        "Ġch",
        "ocolate"
      ],
      [
        "ĠCook",
        "ies"
      ],
      [
        "Ġcook",
        "ies"
      ],
      [
        "Ġf",
        "abric"
      ],
      [
        "ĠF",
        "abric"
      ],
      [
        "Ġt",
        "rash"
      ],
      [
        "Ġs",
        "oft"
      ],
      [
        "ĠT",
        "rash"
      ],
      [
        "000",
        "15"
      ],
      [
        "ĠSoft",
        "ener"
      ],
      [
        "Ġsoft",
        "ener"
      ],
      [
        "o",
        "uthwash"
      ],
      [
        "ĠM",
        "outhwash"
      ],
      [
        "Ġto",
        "othpaste"
      ],
      [
        "ĠTo",
        "othpaste"
      ],
      [
        "Ġmo",
        "uthwash"
      ],
      [
        "r",
        "uit"
      ],
      [
        "Ġf",
        "ree"
      ],
      [
        "ĠF",
        "ruit"
      ],
      [
        "Ġb",
        "lend"
      ],
      [
        "ĠB",
        "lend"
      ],
      [
        "Ġt",
        "una"
      ],
      [
        "001",
        "15"
      ],
      [
        "ĠT",
        "una"
      ],
      [
        "ĠFree",
        "zer"
      ],
      [
        "Ġfr",
        "uit"
      ],
      [
        "Ġsteak",
        "s"
      ],
      [
        "ĠSteak",
        "s"
      ],
      [
        "Ġfree",
        "zer"
      ],
      [
        "Ġ8",
        "8"
      ],
      [
        "001",
        "59"
      ],
      [
        "Ġ9",
        "4"
      ],
      [
        "ĠSh",
        "rimp"
      ],
      [
        "Ġsh",
        "rimp"
      ],
      [
        "s",
        "sues"
      ],
      [
        "Ġ",
        "si"
      ],
      [
        "Ġf",
        "oil"
      ],
      [
        "Ġf",
        "acial"
      ],
      [
        "Ġa",
        "luminum"
      ],
      [
        "Ġp",
        "ortions"
      ],
      [
        "ĠF",
        "oil"
      ],
      [
        "ĠF",
        "acial"
      ],
      [
        "ĠP",
        "ortions"
      ],
      [
        "ĠC",
        "od"
      ],
      [
        "ĠA",
        "luminum"
      ],
      [
        "Ġco",
        "d"
      ],
      [
        "Ġti",
        "ssues"
      ],
      [
        "ĠT",
        "is"
      ],
      [
        "ĠSp",
        "onges"
      ],
      [
        "ĠSi",
        "rloin"
      ],
      [
        "ĠSh",
        "ampoo"
      ],
      [
        "Ġsp",
        "onges"
      ],
      [
        "Ġsh",
        "ampoo"
      ],
      [
        "Ġsi",
        "rloin"
      ],
      [
        "ĠTis",
        "sues"
      ],
      [
        "he",
        "s"
      ],
      [
        "001",
        "07"
      ],
      [
        "000",
        "54"
      ],
      [
        "000",
        "36"
      ],
      [
        "pp",
        "le"
      ],
      [
        "Ġto",
        "ilet"
      ],
      [
        "ĠTo",
        "ilet"
      ],
      [
        "uc",
        "hes"
      ],
      [
        "anan",
        "a"
      ],
      [
        "ĠS",
        "wabs"
      ],
      [
        "Ġc",
        "onditioner"
      ],
      [
        "ĠC",
        "onditioner"
      ],
      [
        "00",
        "2"
      ],
      [
        "Ġco",
        "tton"
      ],
      [
        "Ġs",
        "wabs"
      ],
      [
        "001",
        "58"
      ],
      [
        "000",
        "16"
      ],
      [
        "000",
        "53"
      ],
      [
        "000",
        "57"
      ],
      [
        "Ġ9",
        "0"
      ],
      [
        "Ġ9",
        "1"
      ],
      [
        "ĠCo",
        "tton"
      ],
      [
        "Ġc",
        "leaner"
      ],
      [
        "ĠC",
        "leaner"
      ],
      [
        "Ġs",
        "urface"
      ],
      [
        "001",
        "05"
      ],
      [
        "001",
        "27"
      ],
      [
        "001",
        "37"
      ],
      [
        "Ġto",
        "wels"
      ],
      [
        "ĠTo",
        "wels"
      ],
      [
        "Ġ",
        "sc"
      ],
      [
        "Ġb",
        "ody"
      ],
      [
        "ĠB",
        "ody"
      ],
      [
        "Ġde",
        "odorant"
      ],
      [
        "001",
        "38"
      ],
      [
        "001",
        "76"
      ],
      [
        "000",
        "49"
      ],
      [
        "Ġ9",
        "8"
      ],
      [
        "Ġ9",
        "9"
      ],
      [
        "Ġw",
        "ash"
      ],
      [
        "ĠSc",
        "allops"
      ],
      [
        "ĠDe",
        "odorant"
      ],
      [
        "Ġsc",
        "allops"
      ],
      [
        "001",
        "13"
      ],
      [
        "001",
        "46"
      ],
      [
        "000",
        "59"
      ],
      [
        "000",
        "38"
      ],
      [
        "000",
        "58"
      ],
      [
        "000",
        "86"
      ],
      [
        "Ġf",
        "ish"
      ],
      [
        "ti",
        "ck"
      ],
      [
        "ĠS",
        "tick"
      ],
      [
        "ĠL",
        "aundry"
      ],
      [
        "Ġde",
        "tergent"
      ],
      [
        "Ġl",
        "aundry"
      ],
      [
        "001",
        "02"
      ],
      [
        "001",
        "08"
      ],
      [
        "001",
        "17"
      ],
      [
        "001",
        "54"
      ],
      [
        "000",
        "14"
      ],
      [
        "000",
        "39"
      ],
      [
        "000",
        "46"
      ],
      [
        "ick",
        "s"
      ],
      [
        "Ġst",
        "icks"
      ],
      [
        "ĠDe",
        "tergent"
      ],
      [
        "ĠStick",
        "s"
      ],
      [
        "001",
        "14"
      ],
      [
        "001",
        "29"
      ],
      [
        "001",
        "47"
      ],
      [
        "000",
        "87"
      ],
      [
        "001",
        "09"
      ],
      [
        "001",
        "25"
      ],
      [
        "001",
        "86"
      ],
      [
        "f",
        "an"
      ],
      [
        "l",
        "am"
      ],
      [
        "er",
        "eal"
      ],
      [
        "Ġc",
        "lam"
      ],
      [
        "ĠSt",
        "rips"
      ],
      [
        "001",
        "28"
      ],
      [
        "000",
        "11"
      ],
      [
        "000",
        "97"
      ],
      [
        "Ġ9",
        "5"
      ],
      [
        "Ġst",
        "rips"
      ],
      [
        "ĠCl",
        "am"
      ],
      [
        "fan",
        "t"
      ],
      [
        "001",
        "11"
      ],
      [
        "000",
        "47"
      ],
      [
        "000",
        "79"
      ],
      [
        "d",
        "er"
      ],
      [
        "in",
        "ing"
      ],
      [
        "Ġc",
        "rab"
      ],
      [
        "ĠC",
        "rab"
      ],
      [
        "ra",
        "ining"
      ],
      [
        "an",
        "ts"
      ],
      [
        "Ġt",
        "ilapia"
      ],
      [
        "001",
        "39"
      ],
      [
        "001",
        "87"
      ],
      [
        "ĠT",
        "ilapia"
      ],
      [
        "000",
        "12"
      ],
      [
        "000",
        "13"
      ],
      [
        "ow",
        "der"
      ],
      [
        "001",
        "12"
      ],
      [
        "001",
        "01"
      ],
      [
        "001",
        "19"
      ],
      [
        "001",
        "16"
      ],
      [
        "001",
        "88"
      ],
      [
        "000",
        "19"
      ],
      [
        "001",
        "00"
      ],
      [
        "001",
        "04"
      ],
      [
        "001",
        "23"
      ],
      [
        "001",
        "26"
      ],
      [
        "001",
        "24"
      ],
      [
        "001",
        "57"
      ],
      [
        "001",
        "06"
      ],
      [
        "001",
        "18"
      ],
      [
        "001",
        "48"
      ],
      [
        "001",
        "97"
      ],
      [
        "000",
        "37"
      ],
      [
        "001",
        "36"
      ],
      [
        "001",
        "78"
      ],
      [
        "000",
        "18"
      ],
      [
        "000",
        "48"
      ],
      [
        "000",
        "76"
      ],
      [
        "000",
        "89"
      ],
      [
        "001",
        "98"
      ],
      [
        "001",
        "96"
      ],
      [
        "Ġ9",
        "2"
      ],
      [
        "Ġ9",
        "7"
      ],
      [
        "d",
        "l"
      ],
      [
        "i",
        "ap"
      ],
      [
        "od",
        "dl"
      ],
      [
        "001",
        "77"
      ],
      [
        "000",
        "17"
      ],
      [
        "000",
        "99"
      ],
      [
        "Ġ9",
        "6"
      ],
      [
        "iap",
        "ers"
      ],
      [
        "oddl",
        "er"
      ],
      [
        "001",
        "03"
      ],
      [
        "001",
        "55"
      ],
      [
        "001",
        "43"
      ],
      [
        "001",
        "79"
      ],
      [
        "000",
        "98"
      ],
      [
        "001",
        "89"
      ],
      [
        "000",
        "1"
      ],
      [
        "000",
        "56"
      ],
      [
        "Ġ9",
        "3"
      ],
      [
        "002",
        "00"
      ],
      [
        "001",
        "56"
      ],
      [
        "000",
        "78"
      ],
      [
        "Ġa",
        "pple"
      ]
    ]
  }
}