{
  "version": "1.0",
  "truncation": null,
  "padding": null,
  "added_tokens": [
    {
      "id": 0,
      "content": "[PAD]",
      "single_word": false,
      "lstrip": false,
      "rstrip": false,
      "normalized": false,
      "special": true
    },
    {
      "id": 1,
      "content": "[UNK]",
      "single_word": false,
      "lstrip": false,
      "rstrip": false,
      "normalized": false,
      "special": true
    },
    {
      "id": 2,
      "content": "[CLS]",
      "single_word": false,
      "lstrip": false,
      "rstrip": false,
      "normalized": false,
      "special": true
    },
    {
      "id": 3,
      "content": "[SEP]",
      "single_word": false,
      "lstrip": false,
      "rstrip": false,
      "normalized": false,
      "special": true
    },
    {
      "id": 4,
      "content": "[MASK]",
      "single_word": false,
      "lstrip": false,
      "rstrip": false,
      "normalized": false,
      "special": true
    }
  ],
  "normalizer": null,
  "pre_tokenizer": {
    "type": "ByteLevel",
    "add_prefix_space": false,
    "trim_offsets": true,
    "use_regex": true
  },
  "post_processor": {
    "type": "TemplateProcessing",
    "single": [
      {
        "SpecialToken": {
          "id": "[CLS]",
          "type_id": 0
        }
      },
      {
        "Sequence": {
          "id": "A",
          "type_id": 0
        }
      },
      {
        "SpecialToken": {
          "id": "[SEP]",
          "type_id": 0
        }
      }
    ],
    "pair": [
      {
        "SpecialToken": {
          "id": "[CLS]",
          "type_id": 0
        }
      },
      {
        "Sequence": {
          "id": "A",
          "type_id": 0
        }
      },
      {
        "SpecialToken": {
          "id": "[SEP]",
          "type_id": 0
        }
      },
      {
        "Sequence": {
          "id": "B",
          "type_id": 0
        }
      },
      {
        "SpecialToken": {
          "id": "[SEP]",
          "type_id": 0
        }
      }
    ],
    "special_tokens": {
      "[CLS]": {
        "id": "[CLS]",
        "ids": [
          2
        ],
        "tokens": [
          "[CLS]"
        ]
      },
      "[SEP]": {
        "id": "[SEP]",
        "ids": [
          3
        ],
        "tokens": [
          "[SEP]"
        ]
      }
    }
  },
  "decoder": {
    "type": "ByteLevel",
    "add_prefix_space": true,
    "trim_offsets": true,
    "use_regex": true
  },
  "model": {
    "type": "BPE",
    "dropout": null,
    "unk_token": "[UNK]",
    "continuing_subword_prefix": null,
    "end_of_word_suffix": null,
    "fuse_unk": false,
    "byte_fallback": false,
    "ignore_merges": false,
    "vocab": {
      "[PAD]": 0,
      "[UNK]": 1,
      "[CLS]": 2,
      "[SEP]": 3,
      "[MASK]": 4,
      "!": 5,
      "\"": 6,
      "#": 7,
      "$": 8,
      "%": 9,
      "&": 10,
      "'": 11,
      "(": 12,
      ")": 13,
      "*": 14,
      "+": 15,
      ",": 16,
      "-": 17,
      ".": 18,
      "/": 19,
      "0": 20,
      "1": 21,
      "2": 22,
      "3": 23,
      "4": 24,
      "5": 25,
      "6": 26,
      "7": 27,
      "8": 28,
      "9": 29,
      ":": 30,
      ";": 31,
      "<": 32,
      "=": 33,
      ">": 34,
      "?": 35,
      "@": 36,
      "A": 37,
      "B": 38,
      "C": 39,
      "D": 40,
      "E": 41,
      "F": 42,
      "G": 43,
      "H": 44,
      "I": 45,
      "J": 46,
      "K": 47,
      "L": 48,
      "M": 49,
      "N": 50,
      "O": 51,
      "P": 52,
      "Q": 53,
      "R": 54,
      "S": 55,
      "T": 56,
      "U": 57,
      "V": 58,
      "W": 59,
      "X": 60,
      "Y": 61,
      "Z": 62,
      "[": 63,
      "\\": 64,
      "]": 65,
      "^": 66,
      "_": 67,
      "`": 68,
      "a": 69,
      "b": 70,
      "c": 71,
      "d": 72,
      "e": 73,
      "f": 74,
      "g": 75,
      "h": 76,
      "i": 77,
      "j": 78,
      "k": 79,
      "l": 80,
      "m": 81,
      "n": 82,
      "o": 83,
      "p": 84,
      "q": 85,
      "r": 86,
      "s": 87,
      "t": 88,
      "u": 89,
      "v": 90,
      "w": 91,
      "x": 92,
      "y": 93,
      "z": 94,
      "{": 95,
      "|": 96,
      "}": 97,
      "~": 98,
      "¡": 99,
      "¢": 100,
      "£": 101,
      "¤": 102,
      "¥": 103,
      "¦": 104,
      "§": 105,
      "¨": 106,
      "©": 107,
      "ª": 108,
      "«": 109,
      "¬": 110,
      "®": 111,
      "¯": 112,
      "°": 113,
      "±": 114,
      "²": 115,
      "³": 116,
      "´": 117,
      "µ": 118,
      "¶": 119,
      "·": 120,
      "¸": 121,
      "¹": 122,
      "º": 123,
      "»": 124,
      "¼": 125,
      "½": 126,
      "¾": 127,
      "¿": 128,
      "À": 129,
      "Á": 130,
      "Â": 131,
      "Ã": 132,
      "Ä": 133,
      "Å": 134,
      "Æ": 135,
      "Ç": 136,
      "È": 137,
      "É": 138,
      "Ê": 139,
      "Ë": 140,
      "Ì": 141,
      "Í": 142,
      "Î": 143,
      "Ï": 144,
      "Ð": 145,
      "Ñ": 146,
      "Ò": 147,
      "Ó": 148,
      "Ô": 149,
      "Õ": 150,
      "Ö": 151,
      "×": 152,
      "Ø": 153,
      "Ù": 154,
      "Ú": 155,
      "Û": 156,
      "Ü": 157,
      "Ý": 158,
      "Þ": 159,
      "ß": 160,
      "à": 161,
      "á": 162,
      "â": 163,
      "ã": 164,
      "ä": 165,
      "å": 166,
      "æ": 167,
      "ç": 168,
      "è": 169,
      "é": 170,
      "ê": 171,
      "ë": 172,
      "ì": 173,
      "í": 174,
      "î": 175,
      "ï": 176,
      "ð": 177,
      "ñ": 178,
      "ò": 179,
      "ó": 180,
      "ô": 181,
      "õ": 182,
      "ö": 183,
      "÷": 184,
      "ø": 185,
      "ù": 186,
      "ú": 187,
      "û": 188,
      "ü": 189,
      "ý": 190,
      "þ": 191,
      "ÿ": 192,
      "Ā": 193,
      "ā": 194,
      "Ă": 195,
      "ă": 196,
      "Ą": 197,
      "ą": 198,
      "Ć": 199,
      "ć": 200,
      "Ĉ": 201,
      "ĉ": 202,
      "Ċ": 203,
      "ċ": 204,
      "Č": 205,
      "č": 206,
      "Ď": 207,
      "ď": 208,
      "Đ": 209,
      "đ": 210,
      "Ē": 211,
      "ē": 212,
      "Ĕ": 213,
      "ĕ": 214,
      "Ė": 215,
      "ė": 216,
      "Ę": 217,
      "ę": 218,
      "Ě": 219,
      "ě": 220,
      "Ĝ": 221,
      "ĝ": 222,
      "Ğ": 223,
      "ğ": 224,
      "Ġ": 225,
      "ġ": 226,
      "Ģ": 227,
      "ģ": 228,
      "Ĥ": 229,
      "ĥ": 230,
      "Ħ": 231,
      "ħ": 232,
      "Ĩ": 233,
      "ĩ": 234,
      "Ī": 235,
      "ī": 236,
      "Ĭ": 237,
      "ĭ": 238,
      "Į": 239,
      "į": 240,
      "İ": 241,
      "ı": 242,
      "Ĳ": 243,
      "ĳ": 244,
      "Ĵ": 245,
      "ĵ": 246,
      "Ķ": 247,
      "ķ": 248,
      "ĸ": 249,
      "Ĺ": 250,
      "ĺ": 251,
      "Ļ": 252,
      "ļ": 253,
      "Ľ": 254,
      "ľ": 255,
      "Ŀ": 256,
      "ŀ": 257,
      "Ł": 258,
      "ł": 259,
      "Ń": 260,
      "er": 261,
      "ed": 262,
      "or": 263,
      "Ġ|": 264,
      "in": 265,
      "en": 266,
      "Ġf": 267,
      "ĠS": 268,
      "st": 269,
      "Ġa": 270,
      "re": 271,
      "at": 272,
      "Ġin": 273,
      "nd": 274,
      "ag": 275,
      "Ġfor": 276,
      "age": 277,
      "Ġo": 278,
      "Ġp": 279,
      "ck": 280,
      "ĠL": 281,
      "ro": 282,
      "al": 283,
      "ack": 284,
      "it": 285,
      "ar": 286,
      "ers": 287,
      "ĠLi": 288,
      "ĠC": 289,
      "es": 290,
      "ord": 291,
      "ĠList": 292,
      "ent": 293,
      "ine": 294,
      "ten": 295,
      "il": 296,
      "line": 297,
      "Ġon": 298,
      "ded": 299,
      "ĠF": 300,
      "Ġst": 301,
      "Ġonline": 302,
      "ery": 303,
      "Ġg": 304,
      "Ġord": 305,
      "ĠSt": 306,
      "und": 307,
      "roc": 308,
      "Ġand": 309,
      "Ġund": 310,
      "orage": 311,
      "Ġinten": 312,
      "Ġpack": 313,
      "ĠListed": 314,
      "Ġstorage": 315,
      "Ġgroc": 316,
      "Ġorders": 317,
      "Ġunder": 318,
      "Ġintended": 319,
      "Ġpackage": 320,
      "Ġgrocery": 321,
      "Ġc": 322,
      "ited": 323,
      "ĠP": 324,
      "Un": 325,
      "ĠUn": 326,
      "Ġre": 327,
      "ĠN": 328,
      "ĠA": 329,
      "an": 330,
      "ient": 331,
      "ur": 332,
      "on": 333,
      "ĠR": 334,
      "ates": 335,
      "ĠStates": 336,
      "ĠUnited": 337,
      "le": 338,
      "he": 339,
      "ĠSal": 340,
      "ll": 341,
      "Ġb": 342,
      "ĠSalt": 343,
      "ĠW": 344,
      "ĠM": 345,
      "Ġoz": 346,
      "ing": 347,
      "ho": 348,
      "Ġs": 349,
      "Ġt": 350,
      "ce": 351,
      "ly": 352,
      "mb": 353,
      "Ġamb": 354,
      "Ġambient": 355,
      "ea": 356,
      "ul": 357,
      "Ġfl": 358,
      "is": 359,
      "ĠNo": 360,
      "ated": 361,
      "ller": 362,
      "Ġ1": 363,
      "ĠB": 364,
      "ens": 365,
      "am": 366,
      "ĠT": 367,
      "Ġl": 368,
      "gens": 369,
      "ĠAller": 370,
      "ĠAllergens": 371,
      "ĠG": 372,
      "om": 373,
      "ig": 374,
      "ab": 375,
      "ra": 376,
      "ry": 377,
      "av": 378,
      "et": 379,
      "avor": 380,
      "as": 381,
      "back": 382,
      "eed": 383,
      "eedback": 384,
      "Ġm": 385,
      "ĠFre": 386,
      "od": 387,
      "ĠO": 388,
      "ĠRe": 389,
      "ater": 390,
      "ic": 391,
      "ĠH": 392,
      "ust": 393,
      "ustom": 394,
      "fr": 395,
      "erated": 396,
      "Ġrefr": 397,
      "igerated": 398,
      "Ġrefrigerated": 399,
      "Ġfro": 400,
      "ĠPre": 401,
      "ilk": 402,
      "ld": 403,
      "ut": 404,
      "heat": 405,
      "zen": 406,
      "ĠWheat": 407,
      "iv": 408,
      "ĠMilk": 409,
      "are": 410,
      "ĠSo": 411,
      "ered": 412,
      "uce": 413,
      "ĠListing": 414,
      "gr": 415,
      "edient": 416,
      "Ġingr": 417,
      "edients": 418,
      "Ġingredients": 419,
      "par": 420,
      "Ġcustom": 421,
      "Ġthe": 422,
      "ular": 423,
      "ant": 424,
      "atur": 425,
      "ĠNatur": 426,
      "Ġflavor": 427,
      "ĠNatural": 428,
      "Ġflavors": 429,
      "ood": 430,
      "pp": 431,
      "ily": 432,
      "Ġby": 433,
      "Ġfrozen": 434,
      "eat": 435,
      "Ġpro": 436,
      "ak": 437,
      "ream": 438,
      "ew": 439,
      "ĠPrepar": 440,
      "ĠPrepared": 441,
      "duce": 442,
      "Ġproduce": 443,
      "art": 444,
      "sh": 445,
      "ure": 446,
      "ĠCream": 447,
      "able": 448,
      "ch": 449,
      "antry": 450,
      "Ġof": 451,
      "gular": 452,
      "ket": 453,
      "Ġfeedback": 454,
      "mited": 455,
      "ug": 456,
      "ite": 457,
      "Ġ12": 458,
      "us": 459,
      "Ġd": 460,
      "hopp": 461,
      "ently": 462,
      "Ġli": 463,
      "ĠSea": 464,
      "use": 465,
      "rain": 466,
      "and": 467,
      "Ġlb": 468,
      "Ġ3": 469,
      "ĠSp": 470,
      "Ġto": 471,
      "ult": 472,
      "Ġw": 473,
      "ick": 474,
      "ee": 475,
      "ĠCo": 476,
      "ĠGrain": 477,
      "Ġ2": 478,
      "ĠLo": 479,
      "ĠFree": 480,
      "lu": 481,
      "Ġregular": 482,
      "ordered": 483,
      "ĠFam": 484,
      "ĠFamily": 485,
      "Ġcustomers": 486,
      "hole": 487,
      "ĠRated": 488,
      "ĠFeedback": 489,
      "Ġshopp": 490,
      "Ġshoppers": 491,
      "Ġct": 492,
      "og": 493,
      "ip": 494,
      "ĠCult": 495,
      "Ġpantry": 496,
      "ice": 497,
      "ĠD": 498,
      "ĠSug": 499,
      "ĠSugar": 500,
      "arket": 501,
      "ĠLow": 502,
      "ĠFresh": 503,
      "up": 504,
      "ort": 505,
      "our": 506,
      "end": 507,
      "ĠWhole": 508,
      "ean": 509,
      "un": 510,
      "Ġwater": 511,
      "ons": 512,
      "iz": 513,
      "ail": 514,
      "ĠTo": 515,
      "hold": 516,
      "usehold": 517,
      "ock": 518,
      "ill": 519,
      "ĠHo": 520,
      "erson": 521,
      "Ġcare": 522,
      "ersonal": 523,
      "ast": 524,
      "ĠRec": 525,
      "um": 526,
      "ĠY": 527,
      "ĠFil": 528,
      "ĠWater": 529,
      "onsi": 530,
      "est": 531,
      "les": 532,
      "ĠV": 533,
      "Ġ32": 534,
      "rg": 535,
      "igh": 536,
      "Ġn": 537,
      "food": 538,
      "ices": 539,
      "vi": 540,
      "ked": 541,
      "ĠSe": 542,
      "ĠSiz": 543,
      "ĠSize": 544,
      "Ġ16": 545,
      "ev": 546,
      "tered": 547,
      "erage": 548,
      "Ġbev": 549,
      "ĠFiltered": 550,
      "erages": 551,
      "Ġbeverages": 552,
      "ium": 553,
      "uts": 554,
      "ad": 555,
      "Ġas": 556,
      "Ġpart": 557,
      "ĠStock": 558,
      "Ġflour": 559,
      "son": 560,
      "ĠSeason": 561,
      "ĠLimited": 562,
      "ard": 563,
      "andard": 564,
      "reen": 565,
      "Ġreordered": 566,
      "af": 567,
      "view": 568,
      "ive": 569,
      "Ġcustomer": 570,
      "ai": 571,
      "ures": 572,
      "Ġdai": 573,
      "ĠCultures": 574,
      "Ġdairy": 575,
      "vail": 576,
      "ĠFavor": 577,
      "ĠFavorite": 578,
      "ĠRare": 579,
      "ĠRarely": 580,
      "ms": 581,
      "ne": 582,
      "pur": 583,
      "qu": 584,
      "Ġit": 585,
      "Ġite": 586,
      "Ġais": 587,
      "ceiv": 588,
      "ased": 589,
      "ĠOne": 590,
      "chased": 591,
      "purchased": 592,
      "Ġits": 593,
      "Ġitems": 594,
      "Ġaisle": 595,
      "ighly": 596,
      "dded": 597,
      "ol": 598,
      "atal": 599,
      "Ġcatal": 600,
      "ĠCreamy": 601,
      "ĠRecently": 602,
      "Ġcatalog": 603,
      "Ġlimited": 604,
      "ity": 605,
      "ĠCr": 606,
      "Ġbak": 607,
      "east": 608,
      "ĠYeast": 609,
      "Ġbakery": 610,
      "onsist": 611,
      "aily": 612,
      "ht": 613,
      "ell": 614,
      "ato": 615,
      "ĠWell": 616,
      "Ġso": 617,
      "ap": 618,
      "ips": 619,
      "ĠOil": 620,
      "ĠSpices": 621,
      "lue": 622,
      "con": 623,
      "os": 624,
      "ix": 625,
      "ner": 626,
      "ĠVi": 627,
      "wee": 628,
      "Ġ6": 629,
      "tened": 630,
      "weetened": 631,
      "ish": 632,
      "ĠPo": 633,
      "ĠNew": 634,
      "hips": 635,
      "ree": 636,
      "ĠSoy": 637,
      "ese": 638,
      "heese": 639,
      "nack": 640,
      "nacks": 641,
      "Ġ8": 642,
      "ĠMeat": 643,
      "Ġmeat": 644,
      "ion": 645,
      "Ġh": 646,
      "Ġsnacks": 647,
      "ork": 648,
      "ĠGrains": 649,
      "ĠSeasoning": 650,
      "mon": 651,
      "ial": 652,
      "old": 653,
      "ĠZ": 654,
      "aby": 655,
      "Fi": 656,
      "Fre": 657,
      "eld": 658,
      "shFi": 659,
      "FreshFi": 660,
      "FreshField": 661,
      "hed": 662,
      "itive": 663,
      "ght": 664,
      "ĠLight": 665,
      "ĠLightly": 666,
      "ĠMin": 667,
      "ixed": 668,
      "Blue": 669,
      "ĠCart": 670,
      "Market": 671,
      "ĠPantry": 672,
      "Daily": 673,
      "ĠTable": 674,
      "Pure": 675,
      "ĠGood": 676,
      "Purely": 677,
      "ĠPack": 678,
      "Har": 679,
      "vest": 680,
      "ĠE": 681,
      "ĠLan": 682,
      "Harvest": 683,
      "ĠLane": 684,
      "Cor": 685,
      "ĠMarket": 686,
      "Corner": 687,
      "Oak": 688,
      "Ġ&": 689,
      "ac": 690,
      "ĠUns": 691,
      "Nort": 692,
      "all": 693,
      "ĠFood": 694,
      "ĠStar": 695,
      "North": 696,
      "ĠFoods": 697,
      "urr": 698,
      "Riv": 699,
      "bend": 700,
      "erbend": 701,
      "Ġmo": 702,
      "Riverbend": 703,
      "ĠPean": 704,
      "Sun": 705,
      "ny": 706,
      "ĠBas": 707,
      "Sunny": 708,
      "ĠBasket": 709,
      "Gold": 710,
      "cre": 711,
      "ĠAcre": 712,
      "Golden": 713,
      "mul": 714,
      "mula": 715,
      "Ġpast": 716,
      "ĠCl": 717,
      "ber": 718,
      "Val": 719,
      "ct": 720,
      "ĠCho": 721,
      "ley": 722,
      "lect": 723,
      "ĠSelect": 724,
      "Valley": 725,
      "ets": 726,
      "Ġho": 727,
      "Ġmater": 728,
      "ĠHousehold": 729,
      "ials": 730,
      "Ġhousehold": 731,
      "Ġmaterials": 732,
      "Ġformula": 733,
      "tt": 734,
      "Green": 735,
      "ĠFork": 736,
      "ition": 737,
      "ften": 738,
      "Ġmixed": 739,
      "aff": 740,
      "ance": 741,
      "Ġde": 742,
      "tra": 743,
      "xtra": 744,
      "Ġpersonal": 745,
      "ĠPersonal": 746,
      "rgin": 747,
      "ĠVirgin": 748,
      "ĠExtra": 749,
      "dy": 750,
      "ĠRea": 751,
      "Ġ24": 752,
      "ĠReady": 753,
      "Ced": 754,
      "ĠHouse": 755,
      "Cedar": 756,
      "sic": 757,
      "hell": 758,
      "assic": 759,
      "ĠClassic": 760,
      "ĠCle": 761,
      "ri": 762,
      "ĠPop": 763,
      "Ġth": 764,
      "Ġsea": 765,
      "ĠSeafood": 766,
      "Ġseafood": 767,
      "rais": 768,
      "ĠSod": 769,
      "ĠSodium": 770,
      "Ġfar": 771,
      "cc": 772,
      "pend": 773,
      "Ġacc": 774,
      "Ġpick": 775,
      "ording": 776,
      "Ġreview": 777,
      "Ġdepend": 778,
      "Ġaccording": 779,
      "Ġreviews": 780,
      "Ġdependable": 781,
      "Ġline": 782,
      "ĠStocked": 783,
      "Ġlineup": 784,
      "ĠWas": 785,
      "ĠTree": 786,
      "illa": 787,
      "Ġnuts": 788,
      "less": 789,
      "anic": 790,
      "omato": 791,
      "ĠOrg": 792,
      "ĠOrganic": 793,
      "ering": 794,
      "Ġstandard": 795,
      "Ġordering": 796,
      "ĠAvail": 797,
      "ĠTag": 798,
      "ĠPeanuts": 799,
      "ĠAvailable": 800,
      "ĠStea": 801,
      "tin": 802,
      "uing": 803,
      "ĠI": 804,
      "arance": 805,
      "iscon": 806,
      "ĠSoon": 807,
      "ĠDiscon": 808,
      "ĠClearance": 809,
      "tinuing": 810,
      "ĠDiscontinuing": 811,
      "cent": 812,
      "vent": 813,
      "ory": 814,
      "ĠShopp": 815,
      "ĠShips": 816,
      "Ġinvent": 817,
      "ĠShopper": 818,
      "Ġinventory": 819,
      "ning": 820,
      "tur": 821,
      "Ġretur": 822,
      "ĠFrequ": 823,
      "Ġreturning": 824,
      "ĠFrequently": 825,
      "rated": 826,
      "ĠUnrated": 827,
      "ĠGlu": 828,
      "ĠGluten": 829,
      "ain": 830,
      "ĠCurr": 831,
      "ĠCurrent": 832,
      "mium": 833,
      "ĠPremium": 834,
      "repurchased": 835,
      "ess": 836,
      "Ġco": 837,
      "Ġless": 838,
      "ĠStandard": 839,
      "ĠReceiv": 840,
      "Ġfrom": 841,
      "ĠReceived": 842,
      "Ġ#": 843,
      "ĠPick": 844,
      "ĠHighly": 845,
      "Ġsp": 846,
      "dd": 847,
      "Ġadd": 848,
      "ĠAdded": 849,
      "ĠRegular": 850,
      "ewer": 851,
      "Ġnewer": 852,
      "Ġaddition": 853,
      "eral": 854,
      "eneral": 855,
      "ĠSm": 856,
      "Ġpos": 857,
      "ĠCh": 858,
      "Ġreceiv": 859,
      "ĠGeneral": 860,
      "Ġpositive": 861,
      "Ġreceives": 862,
      "ĠGenerally": 863,
      "Ġis": 864,
      "sting": 865,
      "ĠCustom": 866,
      "Ġstill": 867,
      "Ġlisting": 868,
      "Ġthis": 869,
      "ĠCustomer": 870,
      "Ġrepurchased": 871,
      "Ġmost": 872,
      "Ġadded": 873,
      "ĠReordered": 874,
      "icken": 875,
      "ĠChoice": 876,
      "ĠPopular": 877,
      "ĠWashed": 878,
      "ĠSl": 879,
      "ĠTop": 880,
      "Ġqu": 881,
      "Ġfut": 882,
      "Ġavail": 883,
      "ality": 884,
      "arked": 885,
      "ility": 886,
      "Ġconsist": 887,
      "ĠMarked": 888,
      "ability": 889,
      "Ġhighly": 890,
      "Ġquality": 891,
      "Ġfuture": 892,
      "Ġavailability": 893,
      "Ġconsistent": 894,
      "ĠBest": 895,
      "ĠSeller": 896,
      "ĠMini": 897,
      "com": 898,
      "men": 899,
      "peat": 900,
      "Ġrecom": 901,
      "Ġrepeat": 902,
      "ĠOften": 903,
      "mended": 904,
      "Ġrecommended": 905,
      "ĠReview": 906,
      "ĠReviewed": 907,
      "ft": 908,
      "one": 909,
      "ĠSoft": 910,
      "Ġprais": 911,
      "ĠConsist": 912,
      "Ġpraised": 913,
      "ĠConsistently": 914,
      "Ġliked": 915,
      "kin": 916,
      "ĠSkin": 917,
      "eine": 918,
      "ĠCaff": 919,
      "urt": 920,
      "ogurt": 921,
      "ĠCaffeine": 922,
      "ĠPul": 923,
      "ĠPulp": 924,
      "ĠShell": 925,
      "ter": 926,
      "ero": 927,
      "utter": 928,
      "ĠZero": 929,
      "led": 930,
      "oc": 931,
      "nam": 932,
      "ot": 933,
      "oli": 934,
      "ĠUnsweetened": 935,
      "uice": 936,
      "py": 937,
      "ong": 938,
      "ispy": 939,
      "ĠCrispy": 940,
      "tal": 941,
      "ĠItal": 942,
      "berry": 943,
      "ĠSweetened": 944,
      "atch": 945,
      "ured": 946,
      "ĠRip": 947,
      "ĠBatch": 948,
      "ĠCultured": 949,
      "ĠSmall": 950,
      "ĠRipe": 951,
      "Ġbre": 952,
      "ĠBre": 953,
      "ĠSour": 954,
      "ĠCheese": 955,
      "Ġcheese": 956,
      "ĠSalted": 957,
      "ace": 958,
      "face": 959,
      "urface": 960,
      "emon": 961,
      "ĠLemon": 962,
      "anilla": 963,
      "eef": 964,
      "ff": 965,
      "rt": 966,
      "ĠArt": 967,
      "isan": 968,
      "ĠArtisan": 969,
      "mable": 970,
      "ĠSteamable": 971,
      "ach": 972,
      "inach": 973,
      "iced": 974,
      "ĠSliced": 975,
      "ok": 976,
      "Ġbaby": 977,
      "ĠBaby": 978,
      "ĠHeat": 979,
      "ran": 980,
      "we": 981,
      "Ġro": 982,
      "ĠBak": 983,
      "ĠBaked": 984,
      "Ġ15": 985,
      "eal": 986,
      "ĠSurface": 987,
      "ĠFat": 988,
      "ĠTh": 989,
      "ĠFish": 990,
      "ĠSpain": 991,
      "mo": 992,
      "alf": 993,
      "ex": 994,
      "entle": 995,
      "ĠMex": 996,
      "Ġsal": 997,
      "ĠGentle": 998,
      "ico": 999,
      "ĠMexico": 1000,
      "ey": 1001,
      "key": 1002,
      "urkey": 1003,
      "iss": 1004,
      "chy": 1005,
      "unchy": 1006,
      "ĠCrunchy": 1007,
      "aco": 1008,
      "ats": 1009,
      "lled": 1010,
      "ĠZeal": 1011,
      "ĠZealand": 1012,
      "ls": 1013,
      "anan": 1014,
      "ĠBone": 1015,
      "ĠCook": 1016,
      "ĠBoneless": 1017,
      "live": 1018,
      "Ġv": 1019,
      "round": 1020,
      "rozen": 1021,
      "ĠFrozen": 1022,
      "ĠMult": 1023,
      "ĠMulti": 1024,
      "fish": 1025,
      "ĠSeasoned": 1026,
      "ĠShellfish": 1027,
      "ĠPart": 1028,
      "ĠParty": 1029,
      "Ġ64": 1030,
      "ĠItaly": 1031,
      "ĠScent": 1032,
      "Ġ20": 1033,
      "ĠCan": 1034,
      "ada": 1035,
      "ĠCanada": 1036,
      "lack": 1037,
      "eans": 1038,
      "dr": 1039,
      "ps": 1040,
      "ydr": 1041,
      "ating": 1042,
      "Ġtomato": 1043,
      "ĠTomato": 1044,
      "ĠHydr": 1045,
      "ĠHydrating": 1046,
      "rup": 1047,
      "yrup": 1048,
      "ags": 1049,
      "aghe": 1050,
      "ailand": 1051,
      "aple": 1052,
      "tti": 1053,
      "ĠThailand": 1054,
      "aghetti": 1055,
      "auce": 1056,
      "ĠLean": 1057,
      "cu": 1058,
      "ucu": 1059,
      "mbers": 1060,
      "pples": 1061,
      "ucumbers": 1062,
      "eru": 1063,
      "ĠPeru": 1064,
      "ola": 1065,
      "ĠCare": 1066,
      "ile": 1067,
      "etnam": 1068,
      "ĠDaily": 1069,
      "atoes": 1070,
      "ĠVietnam": 1071,
      "ĠChile": 1072,
      "weet": 1073,
      "ĠSh": 1074,
      "Ġsh": 1075,
      "ĠUnscent": 1076,
      "ĠUnscented": 1077,
      "aine": 1078,
      "dar": 1079,
      "hicken": 1080,
      "lmo": 1081,
      "arp": 1082,
      "Ġchicken": 1083,
      "arts": 1084,
      "ade": 1085,
      "heddar": 1086,
      "ĠChicken": 1087,
      "lmond": 1088,
      "ttage": 1089,
      "ananas": 1090,
      "ĠRo": 1091,
      "vy": 1092,
      "eavy": 1093,
      "ĠHeavy": 1094,
      "uty": 1095,
      "ĠDuty": 1096,
      "coli": 1097,
      "orets": 1098,
      "roccoli": 1099,
      "aper": 1100,
      "ĠMint": 1101,
      "ĠSkinless": 1102,
      "rin": 1103,
      "Ġgal": 1104,
      "ants": 1105,
      "ups": 1106,
      "orts": 1107,
      "rink": 1108,
      "ĠSens": 1109,
      "ĠSensitive": 1110,
      "Ġ10": 1111,
      "akes": 1112,
      "yogurt": 1113,
      "Ġyogurt": 1114,
      "ĠYogurt": 1115,
      "aug": 1116,
      "wber": 1117,
      "ĠCaug": 1118,
      "ild": 1119,
      "ĠWild": 1120,
      "rawber": 1121,
      "ries": 1122,
      "ĠCaught": 1123,
      "rawberries": 1124,
      "ĠPee": 1125,
      "Ġ18": 1126,
      "conut": 1127,
      "ĠPeeled": 1128,
      "ĠFl": 1129,
      "zz": 1130,
      "lla": 1131,
      "Ġbutter": 1132,
      "ĠButter": 1133,
      "ĠGree": 1134,
      "arella": 1135,
      "uns": 1136,
      "rioc": 1137,
      "zzarella": 1138,
      "ĠGreek": 1139,
      "rioche": 1140,
      "saf": 1141,
      "Ġmilk": 1142,
      "safe": 1143,
      "rice": 1144,
      "voc": 1145,
      "Ġrice": 1146,
      "ĠRice": 1147,
      "ados": 1148,
      "vocados": 1149,
      "bly": 1150,
      "ced": 1151,
      "cled": 1152,
      "ponsi": 1153,
      "ycled": 1154,
      "esponsi": 1155,
      "ĠResponsi": 1156,
      "ĠRecycled": 1157,
      "ĠSourced": 1158,
      "ĠResponsibly": 1159,
      "Juice": 1160,
      "juice": 1161,
      "ĠJuice": 1162,
      "Ġjuice": 1163,
      "Ġgreen": 1164,
      "ĠGreen": 1165,
      "do": 1166,
      "ge": 1167,
      "ugh": 1168,
      "dough": 1169,
      "kl": 1170,
      "Ġpot": 1171,
      "parkl": 1172,
      "ortill": 1173,
      "ĠPot": 1174,
      "parkling": 1175,
      "ortillas": 1176,
      "eg": 1177,
      "pe": 1178,
      "ĠAnd": 1179,
      "eas": 1180,
      "ables": 1181,
      "rape": 1182,
      "etables": 1183,
      "egetables": 1184,
      "gets": 1185,
      "uff": 1186,
      "ins": 1187,
      "ita": 1188,
      "uggets": 1189,
      "ockets": 1190,
      "ĠVanilla": 1191,
      "lueberry": 1192,
      "Ġvanilla": 1193,
      "uffins": 1194,
      "Ġbeef": 1195,
      "ĠBeef": 1196,
      "Ġsour": 1197,
      "sa": 1198,
      "ĠSpinach": 1199,
      "Ġspinach": 1200,
      "ash": 1201,
      "lain": 1202,
      "agels": 1203,
      "roiss": 1204,
      "ffee": 1205,
      "roissants": 1206,
      "innam": 1207,
      "innamon": 1208,
      "epp": 1209,
      "za": 1210,
      "eron": 1211,
      "inner": 1212,
      "lls": 1213,
      "ĠMo": 1214,
      "izza": 1215,
      "epperon": 1216,
      "epperoni": 1217,
      "Ġcream": 1218,
      "Ġwhole": 1219,
      "ts": 1220,
      "lets": 1221,
      "vol": 1222,
      "volone": 1223,
      "Ġbread": 1224,
      "ĠBread": 1225,
      "ĠSoup": 1226,
      "Ġsoup": 1227,
      "cor": 1228,
      "corn": 1229,
      "ackers": 1230,
      "ĠHalf": 1231,
      "Ġhalf": 1232,
      "affles": 1233,
      "ars": 1234,
      "Ġturkey": 1235,
      "ĠTurkey": 1236,
      "ranola": 1237,
      "50": 1238,
      "Ġ50": 1239,
      "Ġshell": 1240,
      "Ġtaco": 1241,
      "ĠTaco": 1242,
      "ĠShells": 1243,
      "Ġshells": 1244,
      "fast": 1245,
      "Ġoats": 1246,
      "itos": 1247,
      "ĠOats": 1248,
      "ĠSoap": 1249,
      "akfast": 1250,
      "Ġsoap": 1251,
      "urritos": 1252,
      "Ġrolled": 1253,
      "ĠRolled": 1254,
      "ĠChips": 1255,
      "Ġchips": 1256,
      "el": 1257,
      "ist": 1258,
      "tz": 1259,
      "wist": 1260,
      "Ġoil": 1261,
      "Ġolive": 1262,
      "rail": 1263,
      "ĠOlive": 1264,
      "ighs": 1265,
      "tzel": 1266,
      "wists": 1267,
      "ĠLong": 1268,
      "ĠFr": 1269,
      "Ġgrain": 1270,
      "Ġlong": 1271,
      "acon": 1272,
      "ball": 1273,
      "Ġcho": 1274,
      "balls": 1275,
      "Ġstea": 1276,
      "Ġground": 1277,
      "ĠGround": 1278,
      "ortilla": 1279,
      "ĠSteak": 1280,
      "Ġsteak": 1281,
      "aus": 1282,
      "ian": 1283,
      "ĠItalian": 1284,
      "ausage": 1285,
      "col": 1286,
      "ies": 1287,
      "ate": 1288,
      "colate": 1289,
      "ric": 1290,
      "Ġblack": 1291,
      "Ġbeans": 1292,
      "ĠBlack": 1293,
      "ĠBeans": 1294,
      "abric": 1295,
      "rash": 1296,
      "ftener": 1297,
      "Ġpo": 1298,
      "hp": 1299,
      "hw": 1300,
      "ĠSyrup": 1301,
      "Ġbags": 1302,
      "ĠMaple": 1303,
      "Ġsyrup": 1304,
      "ĠBags": 1305,
      "Ġmaple": 1306,
      "uthw": 1307,
      "ĠSpaghetti": 1308,
      "aste": 1309,
      "Ġspaghetti": 1310,
      "othp": 1311,
      "uthwash": 1312,
      "othpaste": 1313,
      "ĠSauce": 1314,
      "ĠPast": 1315,
      "Ġsauce": 1316,
      "Ġpasta": 1317,
      "ĠPasta": 1318,
      "lend": 1319,
      "uit": 1320,
      "zer": 1321,
      "una": 1322,
      "ini": 1323,
      "Ġapples": 1324,
      "ĠCucumbers": 1325,
      "Ġcucumbers": 1326,
      "ĠApples": 1327,
      "Ġmini": 1328,
      "mp": 1329,
      "rimp": 1330,
      "ĠSweet": 1331,
      "Ġpean": 1332,
      "Ġcr": 1333,
      "Ġsweet": 1334,
      "ĠPeanut": 1335,
      "Ġpotatoes": 1336,
      "ĠPotatoes": 1337,
      "Ġpeanut": 1338,
      "ir": 1339,
      "ions": 1340,
      "lo": 1341,
      "min": 1342,
      "oo": 1343,
      "oil": 1344,
      "poo": 1345,
      "ues": 1346,
      "ĠSalmon": 1347,
      "ampoo": 1348,
      "lumin": 1349,
      "ortions": 1350,
      "acial": 1351,
      "onges": 1352,
      "Ġsalmon": 1353,
      "issues": 1354,
      "irlo": 1355,
      "luminum": 1356,
      "irloin": 1357,
      "earts": 1358,
      "maine": 1359,
      "Ġle": 1360,
      "Ġhe": 1361,
      "Ġalmond": 1362,
      "ĠCheddar": 1363,
      "Ġcheddar": 1364,
      "ĠAlmond": 1365,
      "ĠRom": 1366,
      "ĠMac": 1367,
      "Ġmac": 1368,
      "ĠHearts": 1369,
      "monade": 1370,
      "ĠLemonade": 1371,
      "Ġromaine": 1372,
      "ĠSharp": 1373,
      "Ġsharp": 1374,
      "Ġlemonade": 1375,
      "Ġhearts": 1376,
      "ĠRomaine": 1377,
      "ilet": 1378,
      "Ġbananas": 1379,
      "ĠBananas": 1380,
      "ĠCottage": 1381,
      "Ġcottage": 1382,
      "wab": 1383,
      "ndition": 1384,
      "Ġpaper": 1385,
      "ĠPaper": 1386,
      "Ġbroccoli": 1387,
      "Ġflorets": 1388,
      "ĠBroccoli": 1389,
      "tton": 1390,
      "ĠFlorets": 1391,
      "wabs": 1392,
      "nditioner": 1393,
      "ĠCups": 1394,
      "Ġcups": 1395,
      "Ġdrink": 1396,
      "ĠSports": 1397,
      "ĠDrink": 1398,
      "Ġsports": 1399,
      "aner": 1400,
      "wels": 1401,
      "ĠCakes": 1402,
      "Ġcakes": 1403,
      "call": 1404,
      "ops": 1405,
      "orant": 1406,
      "Ġstrawberries": 1407,
      "ĠStrawberries": 1408,
      "ody": 1409,
      "odorant": 1410,
      "callops": 1411,
      "ĠCoconut": 1412,
      "Ġcoconut": 1413,
      "lices": 1414,
      "Ġbuns": 1415,
      "Ġbrioche": 1416,
      "Ġslices": 1417,
      "ĠBuns": 1418,
      "ĠBrioche": 1419,
      "Ġmozzarella": 1420,
      "ĠSlices": 1421,
      "ĠMozzarella": 1422,
      "Ġavocados": 1423,
      "Ġcran": 1424,
      "ĠAvocados": 1425,
      "anberry": 1426,
      "Ġtea": 1427,
      "ĠTea": 1428,
      "ĠCranberry": 1429,
      "Ġcranberry": 1430,
      "aund": 1431,
      "gent": 1432,
      "ergent": 1433,
      "etergent": 1434,
      "icks": 1435,
      "aundry": 1436,
      "oaf": 1437,
      "Ġor": 1438,
      "ange": 1439,
      "Ġloaf": 1440,
      "ĠOran": 1441,
      "ĠLoaf": 1442,
      "ĠSourdough": 1443,
      "Ġsourdough": 1444,
      "Ġorange": 1445,
      "ĠOrange": 1446,
      "ĠSparkling": 1447,
      "Ġsparkling": 1448,
      "Ġtortillas": 1449,
      "ĠTortillas": 1450,
      "ĠFlour": 1451,
      "Ġpeas": 1452,
      "Ġgrape": 1453,
      "ĠPeas": 1454,
      "ĠMixed": 1455,
      "ĠGrape": 1456,
      "ĠVegetables": 1457,
      "Ġvegetables": 1458,
      "Ġtomatoes": 1459,
      "ĠTomatoes": 1460,
      "Ġpita": 1461,
      "Ġpockets": 1462,
      "ĠPita": 1463,
      "ĠPockets": 1464,
      "ĠNuggets": 1465,
      "Ġblueberry": 1466,
      "ĠMuffins": 1467,
      "ĠBlueberry": 1468,
      "Ġmuffins": 1469,
      "Ġnuggets": 1470,
      "la": 1471,
      "rips": 1472,
      "Ġcola": 1473,
      "ĠCola": 1474,
      "ĠSalsa": 1475,
      "Ġsalsa": 1476,
      "ioli": 1477,
      "Ġra": 1478,
      "ĠRav": 1479,
      "violi": 1480,
      "Ġravioli": 1481,
      "ĠRavioli": 1482,
      "ted": 1483,
      "Ġplain": 1484,
      "ĠCroissants": 1485,
      "Ġcold": 1486,
      "Ġcroissants": 1487,
      "ĠPlain": 1488,
      "Ġbagels": 1489,
      "ĠBagels": 1490,
      "ĠCold": 1491,
      "ĠCoffee": 1492,
      "Ġcoffee": 1493,
      "Ġbrew": 1494,
      "ĠBrew": 1495,
      "Ġsalted": 1496,
      "ia": 1497,
      "ilap": 1498,
      "ilapia": 1499,
      "tion": 1500,
      "Ġlot": 1501,
      "ĠLotion": 1502,
      "Ġlotion": 1503,
      "ais": 1504,
      "Ġrais": 1505,
      "ĠCinnamon": 1506,
      "Ġcinnamon": 1507,
      "ĠRais": 1508,
      "Ġraisin": 1509,
      "ĠRaisin": 1510,
      "Ġpizza": 1511,
      "Ġpepperoni": 1512,
      "ĠPizza": 1513,
      "ĠPepperoni": 1514,
      "Ġdinner": 1515,
      "ĠDinner": 1516,
      "Ġrolls": 1517,
      "ĠRolls": 1518,
      "Ġfil": 1519,
      "ĠFillets": 1520,
      "Ġfillets": 1521,
      "rovolone": 1522,
      "ĠProvolone": 1523,
      "Ġprovolone": 1524,
      "oked": 1525,
      "rance": 1526,
      "agrance": 1527,
      "Ġsmo": 1528,
      "ĠSmoked": 1529,
      "ĠFragrance": 1530,
      "Ġsmoked": 1531,
      "Ġice": 1532,
      "ĠIce": 1533,
      "pcorn": 1534,
      "ĠPopcorn": 1535,
      "Ġpopcorn": 1536,
      "ĠWaffles": 1537,
      "ĠHam": 1538,
      "Ġdish": 1539,
      "Ġwheat": 1540,
      "Ġwaffles": 1541,
      "ĠDish": 1542,
      "ĠCrackers": 1543,
      "Ġham": 1544,
      "Ġpotato": 1545,
      "ĠPotato": 1546,
      "Ġcrackers": 1547,
      "rip": 1548,
      "Ġpork": 1549,
      "Ġgranola": 1550,
      "ĠPork": 1551,
      "Ġbars": 1552,
      "ĠBars": 1553,
      "ĠGranola": 1554,
      "ĠGrip": 1555,
      "asy": 1556,
      "ĠEasy": 1557,
      "ĠChops": 1558,
      "Ġchops": 1559,
      "Ġburritos": 1560,
      "ĠBurritos": 1561,
      "Ġbreakfast": 1562,
      "ĠBreakfast": 1563,
      "retzel": 1564,
      "Ġpretzel": 1565,
      "ĠMix": 1566,
      "Ġtrail": 1567,
      "Ġtwists": 1568,
      "ĠTrail": 1569,
      "ĠTwists": 1570,
      "Ġmix": 1571,
      "ĠPretzel": 1572,
      "Ġthighs": 1573,
      "ĠThighs": 1574,
      "Ġbacon": 1575,
      "ĠBacon": 1576,
      "ĠHand": 1577,
      "ĠMeatballs": 1578,
      "Ġmeatballs": 1579,
      "Ġhand": 1580,
      "Ġtortilla": 1581,
      "ĠTortilla": 1582,
      "ĠSausage": 1583,
      "Ġsausage": 1584,
      "Ġbreast": 1585,
      "ĠBreast": 1586,
      "ĠChocolate": 1587,
      "Ġcook": 1588,
      "ĠCookies": 1589,
      "Ġchocolate": 1590,
      "Ġcookies": 1591,
      "Ġfabric": 1592,
      "ĠFabric": 1593,
      "Ġtrash": 1594,
      "ĠTrash": 1595,
      "ĠSoftener": 1596,
      "Ġsoftener": 1597,
      "Ġtoothpaste": 1598,
      "ĠToothpaste": 1599,
      "Ġmouthwash": 1600,
      "ĠMouthwash": 1601,
      "ruit": 1602,
      "Ġfree": 1603,
      "Ġfruit": 1604,
      "Ġblend": 1605,
      "Ġtuna": 1606,
      "ĠBlend": 1607,
      "ĠTuna": 1608,
      "ĠFreezer": 1609,
      "ĠFruit": 1610,
      "ĠSteaks": 1611,
      "Ġsteaks": 1612,
      "Ġfreezer": 1613,
      "ĠShrimp": 1614,
      "Ġshrimp": 1615,
      "Ġfoil": 1616,
      "Ġfacial": 1617,
      "ĠSirloin": 1618,
      "Ġaluminum": 1619,
      "Ġportions": 1620,
      "ĠCod": 1621,
      "ĠFoil": 1622,
      "ĠFacial": 1623,
      "Ġcod": 1624,
      "ĠPortions": 1625,
      "ĠAluminum": 1626,
      "Ġsirloin": 1627,
      "Ġtissues": 1628,
      "ĠTissues": 1629,
      "ĠSponges": 1630,
      "Ġsponges": 1631,
      "ĠShampoo": 1632,
      "Ġshampoo": 1633,
      "uch": 1634,
      "pple": 1635,
      "Ġtoilet": 1636,
      "ĠToilet": 1637,
      "anana": 1638,
      "uches": 1639,
      "ĠSwabs": 1640,
      "Ġswabs": 1641,
      "ĠCotton": 1642,
      "ĠConditioner": 1643,
      "Ġcotton": 1644,
      "Ġconditioner": 1645,
      "Ġcle": 1646,
      "Ġsurface": 1647,
      "Ġtowels": 1648,
      "ĠTowels": 1649,
      "ĠCleaner": 1650,
      "Ġcleaner": 1651,
      "eodorant": 1652,
      "ĠScallops": 1653,
      "Ġbody": 1654,
      "Ġscallops": 1655,
      "ĠBody": 1656,
      "Ġwash": 1657,
      "ĠDeodorant": 1658,
      "Ġdeodorant": 1659,
      "ĠWash": 1660,
      "Ġfish": 1661,
      "ĠLaundry": 1662,
      "Ġsticks": 1663,
      "ĠSticks": 1664,
      "Ġlaundry": 1665,
      "Ġdetergent": 1666,
      "ĠDetergent": 1667,
      "Ġ4": 1668,
      "fant": 1669,
      "lam": 1670,
      "ereal": 1671,
      "Ġstrips": 1672,
      "ĠStrips": 1673,
      "Ġclam": 1674,
      "ĠClam": 1675,
      "der": 1676,
      "wder": 1677,
      "Ġtilapia": 1678,
      "ĠTilapia": 1679,
      "raining": 1680,
      "ĠCrab": 1681,
      "Ġcrab": 1682,
      "uree": 1683,
      "dl": 1684,
      "iap": 1685,
      "oddl": 1686,
      "iapers": 1687,
      "oddler": 1688,
      "Ġapple": 1689,
      "ĠApple": 1690,
      "Ġbanana": 1691,
      "ĠBanana": 1692,
      "ĠPouches": 1693,
      "Ġpouches": 1694,
      "nfant": 1695,
      "Ġinfant": 1696,
      "ĠCereal": 1697,
      "Ġcereal": 1698,
      "ĠInfant": 1699,
      "ormula": 1700,
      "Ġpants": 1701,
      "ĠFormula": 1702,
      "ĠPants": 1703,
      "Ġtraining": 1704,
      "ĠTraining": 1705,
      "ipes": 1706,
      "ĠPowder": 1707,
      "Ġpowder": 1708,
      "Ġpuree": 1709,
      "Ġstage": 1710,
      "ĠStage": 1711,
      "ĠPuree": 1712,
      "ĠSnacks": 1713,
      "Ġtoddler": 1714,
      "ĠToddler": 1715,
      "Ġdiapers": 1716,
      "ĠDiapers": 1717,
      "ĠWipes": 1718,
      "Ġwipes": 1719
    },
    "merges": [
      [
        "e",
        "r"
      ],
      [
        "e",
        "d"
      ],
      [
        "o",
        "r"
      ],
      [
        "Ġ",
        "|"
      ],
      [
        "i",
        "n"
      ],
      [
        "e",
        "n"
      ],
      [
        "Ġ",
        "f"
      ],
      [
        "Ġ",
        "S"
      ],
      [
        "s",
        "t"
      ],
      [
        "Ġ",
        "a"
      ],
      [
        "r",
        "e"
      ],
      [
        "a",
        "t"
      ],
      [
        "Ġ",
        "in"
      ],
      [
        "n",
        "d"
      ],
      [
        "a",
        "g"
      ],
      [
        "Ġf",
        "or"
      ],
      [
        "ag",
        "e"
      ],
      [
        "Ġ",
        "o"
      ],
      [
        "Ġ",
        "p"
      ],
      [
        "c",
        "k"
      ],
      [
        "Ġ",
        "L"
      ],
      [
        "r",
        "o"
      ],
      [
        "a",
        "l"
      ],
      [
        "a",
        "ck"
      ],
      [
        "i",
        "t"
      ],
      [
        "a",
        "r"
      ],
      [
        "er",
        "s"
      ],
      [
        "ĠL",
        "i"
      ],
      [
        "Ġ",
        "C"
      ],
      [
        "e",
        "s"
      ],
      [
        "or",
        "d"
      ],
      [
        "ĠLi",
        "st"
      ],
      [
        "en",
        "t"
      ],
      [
        "in",
        "e"
      ],
      [
        "t",
        "en"
      ],
      [
        "i",
        "l"
      ],
      [
        "l",
        "ine"
      ],
      [
        "Ġo",
        "n"
      ],
      [
        "d",
        "ed"
      ],
      [
        "Ġ",
        "F"
      ],
      [
        "Ġ",
        "st"
      ],
      [
        "Ġon",
        "line"
      ],
      [
        "er",
        "y"
      ],
      [
        "Ġ",
        "g"
      ],
      [
        "Ġ",
        "ord"
      ],
      [
        "ĠS",
        "t"
      ],
      [
        "u",
        "nd"
      ],
      [
        "ro",
        "c"
      ],
      [
        "Ġa",
        "nd"
      ],
      [
        "Ġ",
        "und"
      ],
      [
        "or",
        "age"
      ],
      [
        "Ġin",
        "ten"
      ],
      [
        "Ġp",
        "ack"
      ],
      [
        "ĠList",
        "ed"
      ],
      [
        "Ġst",
        "orage"
      ],
      [
        "Ġg",
        "roc"
      ],
      [
        "Ġord",
        "ers"
      ],
      [
        "Ġund",
        "er"
      ],
      [
        "Ġinten",
        "ded"
      ],
      [
        "Ġpack",
        "age"
      ],
      [
        "Ġgroc",
        "ery"
      ],
      [
        "Ġ",
        "c"
      ],
      [
        "it",
        "ed"
      ],
      [
        "Ġ",
        "P"
      ],
      [
        "U",
        "n"
      ],
      [
        "Ġ",
        "Un"
      ],
      [
        "Ġ",
        "re"
      ],
      [
        "Ġ",
        "N"
      ],
      [
        "Ġ",
        "A"
      ],
      [
        "a",
        "n"
      ],
      [
        "i",
        "ent"
      ],
      [
        "u",
        "r"
      ],
      [
        "o",
        "n"
      ],
      [
        "Ġ",
        "R"
      ],
      [
        "at",
        "es"
      ],
      [
        "ĠSt",
        "ates"
      ],
      [
        "ĠUn",
        "ited"
      ],
      [
        "l",
        "e"
      ],
      [
        "h",
        "e"
      ],
      [
        "ĠS",
        "al"
      ],
      [
        "l",
        "l"
      ],
      [
        "Ġ",
        "b"
      ],
      [
        "ĠSal",
        "t"
      ],
      [
        "Ġ",
        "W"
      ],
      [
        "Ġ",
        "M"
      ],
      [
        "Ġo",
        "z"
      ],
      [
        "in",
        "g"
      ],
      [
        "h",
        "o"
      ],
      [
        "Ġ",
        "s"
      ],
      [
        "Ġ",
        "t"
      ],
      [
        "c",
        "e"
      ],
      [
        "l",
        "y"
      ],
      [
        "m",
        "b"
      ],
      [
        "Ġa",
        "mb"
      ],
      [
        "Ġamb",
        "ient"
      ],
      [
        "e",
        "a"
      ],
      [
        "u",
        "l"
      ],
      [
        "Ġf",
        "l"
      ],
      [
        "i",
        "s"
      ],
      [
        "ĠN",
        "o"
      ],
      [
        "at",
        "ed"
      ],
      [
        "ll",
        "er"
      ],
      [
        "Ġ",
        "1"
      ],
      [
        "Ġ",
        "B"
      ],
      [
        "en",
        "s"
      ],
      [
        "a",
        "m"
      ],
      [
        "Ġ",
        "T"
      ],
      [
        "Ġ",
        "l"
      ],
      [
        "g",
        "ens"
      ],
      [
        "ĠA",
        "ller"
      ],
      [
        "ĠAller",
        "gens"
      ],
      [
        "Ġ",
        "G"
      ],
      [
        "o",
        "m"
      ],
      [
        "i",
        "g"
      ],
      [
        "a",
        "b"
      ],
      [
        "r",
        "a"
      ],
      [
        "r",
        "y"
      ],
      [
        "a",
        "v"
      ],
      [
        "e",
        "t"
      ],
      [
        "av",
        "or"
      ],
      [
        "a",
        "s"
      ],
      [
        "b",
        "ack"
      ],
      [
        "e",
        "ed"
      ],
      [
        "eed",
        "back"
      ],
      [
        "Ġ",
        "m"
      ],
      [
        "ĠF",
        "re"
      ],
      [
        "o",
        "d"
      ],
      [
        "Ġ",
        "O"
      ],
      [
        "ĠR",
        "e"
      ],
      [
        "at",
        "er"
      ],
      [
        "i",
        "c"
      ],
      [
        "Ġ",
        "H"
      ],
      [
        "u",
        "st"
      ],
      [
        "ust",
        "om"
      ],
      [
        "f",
        "r"
      ],
      [
        "er",
        "ated"
      ],
      [
        "Ġre",
        "fr"
      ],
      [
        "ig",
        "erated"
      ],
      [
        "Ġrefr",
        "igerated"
      ],
      [
        "Ġf",
        "ro"
      ],
      [
        "ĠP",
        "re"
      ],
      [
        "il",
        "k"
      ],
      [
        "l",
        "d"
      ],
      [
        "u",
        "t"
      ],
      [
        "he",
        "at"
      ],
      [
        "z",
        "en"
      ],
      [
        "ĠW",
        "heat"
      ],
      [
        "i",
        "v"
      ],
      [
        "ĠM",
        "ilk"
      ],
      [
        "a",
        "re"
      ],
      [
        "ĠS",
        "o"
      ],
      [
        "er",
        "ed"
      ],
      [
        "u",
        "ce"
      ],
      [
        "ĠList",
        "ing"
      ],
      [
        "g",
        "r"
      ],
      [
        "ed",
        "ient"
      ],
      [
        "Ġin",
        "gr"
      ],
      [
        "edient",
        "s"
      ],
      [
        "Ġingr",
        "edients"
      ],
      [
        "p",
        "ar"
      ],
      [
        "Ġc",
        "ustom"
      ],
      [
        "Ġt",
        "he"
      ],
      [
        "ul",
        "ar"
      ],
      [
        "an",
        "t"
      ],
      [
        "at",
        "ur"
      ],
      [
        "ĠN",
        "atur"
      ],
      [
        "Ġfl",
        "avor"
      ],
      [
        "ĠNatur",
        "al"
      ],
      [
        "Ġflavor",
        "s"
      ],
      [
        "o",
        "od"
      ],
      [
        "p",
        "p"
      ],
      [
        "il",
        "y"
      ],
      [
        "Ġb",
        "y"
      ],
      [
        "Ġfro",
        "zen"
      ],
      [
        "e",
        "at"
      ],
      [
        "Ġp",
        "ro"
      ],
      [
        "a",
        "k"
      ],
      [
        "re",
        "am"
      ],
      [
        "e",
        "w"
      ],
      [
        "ĠPre",
        "par"
      ],
      [
        "ĠPrepar",
        "ed"
      ],
      [
        "d",
        "uce"
      ],
      [
        "Ġpro",
        "duce"
      ],
      [
        "ar",
        "t"
      ],
      [
        "s",
        "h"
      ],
      [
        "u",
        "re"
      ],
      [
        "ĠC",
        "ream"
      ],
      [
        "ab",
        "le"
      ],
      [
        "c",
        "h"
      ],
      [
        "ant",
        "ry"
      ],
      [
        "Ġo",
        "f"
      ],
      [
        "g",
        "ular"
      ],
      [
        "k",
        "et"
      ],
      [
        "Ġf",
        "eedback"
      ],
      [
        "m",
        "ited"
      ],
      [
        "u",
        "g"
      ],
      [
        "it",
        "e"
      ],
      [
        "Ġ1",
        "2"
      ],
      [
        "u",
        "s"
      ],
      [
        "Ġ",
        "d"
      ],
      [
        "ho",
        "pp"
      ],
      [
        "ent",
        "ly"
      ],
      [
        "Ġl",
        "i"
      ],
      [
        "ĠS",
        "ea"
      ],
      [
        "us",
        "e"
      ],
      [
        "ra",
        "in"
      ],
      [
        "a",
        "nd"
      ],
      [
        "Ġl",
        "b"
      ],
      [
        "Ġ",
        "3"
      ],
      [
        "ĠS",
        "p"
      ],
      [
        "Ġt",
        "o"
      ],
      [
        "ul",
        "t"
      ],
      [
        "Ġ",
        "w"
      ],
      [
        "i",
        "ck"
      ],
      [
        "e",
        "e"
      ],
      [
        "ĠC",
        "o"
      ],
      [
        "ĠG",
        "rain"
      ],
      [
        "Ġ",
        "2"
      ],
      [
        "ĠL",
        "o"
      ],
      [
        "ĠFre",
        "e"
      ],
      [
        "l",
        "u"
      ],
      [
        "Ġre",
        "gular"
      ],
      [
        "ord",
        "ered"
      ],
      [
        "ĠF",
        "am"
      ],
      [
        "ĠFam",
        "ily"
      ],
      [
        "Ġcustom",
        "ers"
      ],
      [
        "ho",
        "le"
      ],
      [
        "ĠR",
        "ated"
      ],
      [
        "ĠF",
        "eedback"
      ],
      [
        "Ġs",
        "hopp"
      ],
      [
        "Ġshopp",
        "ers"
      ],
      [
        "Ġc",
        "t"
      ],
      [
        "o",
        "g"
      ],
      [
        "i",
        "p"
      ],
      [
        "ĠC",
        "ult"
      ],
      [
        "Ġp",
        "antry"
      ],
      [
        "i",
        "ce"
      ],
      [
        "Ġ",
        "D"
      ],
      [
        "ĠS",
        "ug"
      ],
      [
        "ĠSug",
        "ar"
      ],
      [
        "ar",
        "ket"
      ],
      [
        "ĠLo",
        "w"
      ],
      [
        "ĠFre",
        "sh"
      ],
      [
        "u",
        "p"
      ],
      [
        "or",
        "t"
      ],
      [
        "o",
        "ur"
      ],
      [
        "en",
        "d"
      ],
      [
        "ĠW",
        "hole"
      ],
      [
        "e",
        "an"
      ],
      [
        "u",
        "n"
      ],
      [
        "Ġw",
        "ater"
      ],
      [
        "on",
        "s"
      ],
      [
        "i",
        "z"
      ],
      [
        "a",
        "il"
      ],
      [
        "ĠT",
        "o"
      ],
      [
        "ho",
        "ld"
      ],
      [
        "use",
        "hold"
      ],
      [
        "o",
        "ck"
      ],
      [
        "il",
        "l"
      ],
      [
        "ĠH",
        "o"
      ],
      [
        "ers",
        "on"
      ],
      [
        "Ġc",
        "are"
      ],
      [
        "erson",
        "al"
      ],
      [
        "a",
        "st"
      ],
      [
        "ĠRe",
        "c"
      ],
      [
        "u",
        "m"
      ],
      [
        "Ġ",
        "Y"
      ],
      [
        "ĠF",
        "il"
      ],
      [
        "ĠW",
        "ater"
      ],
      [
        "ons",
        "i"
      ],
      [
        "e",
        "st"
      ],
      [
        "l",
        "es"
      ],
      [
        "Ġ",
        "V"
      ],
      [
        "Ġ3",
        "2"
      ],
      [
        "r",
        "g"
      ],
      [
        "ig",
        "h"
      ],
      [
        "Ġ",
        "n"
      ],
      [
        "f",
        "ood"
      ],
      [
        "ic",
        "es"
      ],
      [
        "v",
        "i"
      ],
      [
        "k",
        "ed"
      ],
      [
        "ĠS",
        "e"
      ],
      [
        "ĠS",
        "iz"
      ],
      [
        "ĠSiz",
        "e"
      ],
      [
        "Ġ1",
        "6"
      ],
      [
        "e",
        "v"
      ],
      [
        "t",
        "ered"
      ],
      [
        "er",
        "age"
      ],
      [
        "Ġb",
        "ev"
      ],
      [
        "ĠFil",
        "tered"
      ],
      [
        "erage",
        "s"
      ],
      [
        "Ġbev",
        "erages"
      ],
      [
        "i",
        "um"
      ],
      [
        "ut",
        "s"
      ],
      [
        "a",
        "d"
      ],
      [
        "Ġa",
        "s"
      ],
      [
        "Ġp",
        "art"
      ],
      [
        "ĠSt",
        "ock"
      ],
      [
        "Ġfl",
        "our"
      ],
      [
        "s",
        "on"
      ],
      [
        "ĠSea",
        "son"
      ],
      [
        "ĠLi",
        "mited"
      ],
      [
        "ar",
        "d"
      ],
      [
        "and",
        "ard"
      ],
      [
        "re",
        "en"
      ],
      [
        "Ġre",
        "ordered"
      ],
      [
        "a",
        "f"
      ],
      [
        "vi",
        "ew"
      ],
      [
        "iv",
        "e"
      ],
      [
        "Ġcustom",
        "er"
      ],
      [
        "a",
        "i"
      ],
      [
        "ure",
        "s"
      ],
      [
        "Ġd",
        "ai"
      ],
      [
        "ĠCult",
        "ures"
      ],
      [
        "Ġdai",
        "ry"
      ],
      [
        "v",
        "ail"
      ],
      [
        "ĠF",
        "avor"
      ],
      [
        "ĠFavor",
        "ite"
      ],
      [
        "ĠR",
        "are"
      ],
      [
        "ĠRare",
        "ly"
      ],
      [
        "m",
        "s"
      ],
      [
        "n",
        "e"
      ],
      [
        "p",
        "ur"
      ],
      [
        "q",
        "u"
      ],
      [
        "Ġ",
        "it"
      ],
      [
        "Ġ",
        "ite"
      ],
      [
        "Ġa",
        "is"
      ],
      [
        "ce",
        "iv"
      ],
      [
        "as",
        "ed"
      ],
      [
        "ĠO",
        "ne"
      ],
      [
        "ch",
        "ased"
      ],
      [
        "pur",
        "chased"
      ],
      [
        "Ġit",
        "s"
      ],
      [
        "Ġite",
        "ms"
      ],
      [
        "Ġais",
        "le"
      ],
      [
        "igh",
        "ly"
      ],
      [
        "d",
        "ded"
      ],
      [
        "o",
        "l"
      ],
      [
        "at",
        "al"
      ],
      [
        "Ġc",
        "atal"
      ],
      [
        "ĠCream",
        "y"
      ],
      [
        "ĠRec",
        "ently"
      ],
      [
        "Ġcatal",
        "og"
      ],
      [
        "Ġli",
        "mited"
      ],
      [
        "it",
        "y"
      ],
      [
        "ĠC",
        "r"
      ],
      [
        "Ġb",
        "ak"
      ],
      [
        "ea",
        "st"
      ],
      [
        "ĠY",
        "east"
      ],
      [
        "Ġbak",
        "ery"
      ],
      [
        "onsi",
        "st"
      ],
      [
        "a",
        "ily"
      ],
      [
        "h",
        "t"
      ],
      [
        "e",
        "ll"
      ],
      [
        "at",
        "o"
      ],
      [
        "ĠW",
        "ell"
      ],
      [
        "Ġs",
        "o"
      ],
      [
        "a",
        "p"
      ],
      [
        "ip",
        "s"
      ],
      [
        "ĠO",
        "il"
      ],
      [
        "ĠSp",
        "ices"
      ],
      [
        "lu",
        "e"
      ],
      [
        "c",
        "on"
      ],
      [
        "o",
        "s"
      ],
      [
        "i",
        "x"
      ],
      [
        "n",
        "er"
      ],
      [
        "ĠV",
        "i"
      ],
      [
        "w",
        "ee"
      ],
      [
        "Ġ",
        "6"
      ],
      [
        "ten",
        "ed"
      ],
      [
        "wee",
        "tened"
      ],
      [
        "is",
        "h"
      ],
      [
        "ĠP",
        "o"
      ],
      [
        "ĠN",
        "ew"
      ],
      [
        "h",
        "ips"
      ],
      [
        "re",
        "e"
      ],
      [
        "ĠSo",
        "y"
      ],
      [
        "es",
        "e"
      ],
      [
        "he",
        "ese"
      ],
      [
        "n",
        "ack"
      ],
      [
        "nack",
        "s"
      ],
      [
        "Ġ",
        "8"
      ],
      [
        "ĠM",
        "eat"
      ],
      [
        "Ġm",
        "eat"
      ],
      [
        "i",
        "on"
      ],
      [
        "Ġ",
        "h"
      ],
      [
        "Ġs",
        "nacks"
      ],
      [
        "or",
        "k"
      ],
      [
        "ĠGrain",
        "s"
      ],
      [
        "ĠSeason",
        "ing"
      ],
      [
        "m",
        "on"
      ],
      [
        "i",
        "al"
      ],
      [
        "o",
        "ld"
      ],
      [
        "Ġ",
        "Z"
      ],
      [
        "ab",
        "y"
      ],
      [
        "F",
        "i"
      ],
      [
        "F",
        "re"
      ],
      [
        "e",
        "ld"
      ],
      [
        "sh",
        "Fi"
      ],
      [
        "Fre",
        "shFi"
      ],
      [
        "FreshFi",
        "eld"
      ],
      [
        "h",
        "ed"
      ],
      [
        "it",
        "ive"
      ],
      [
        "g",
        "ht"
      ],
      [
        "ĠLi",
        "ght"
      ],
      [
        "ĠLight",
        "ly"
      ],
      [
        "ĠM",
        "in"
      ],
      [
        "ix",
        "ed"
      ],
      [
        "B",
        "lue"
      ],
      [
        "ĠC",
        "art"
      ],
      [
        "M",
        "arket"
      ],
      [
        "ĠP",
        "antry"
      ],
      [
        "D",
        "aily"
      ],
      [
        "ĠT",
        "able"
      ],
      [
        "P",
        "ure"
      ],
      [
        "ĠG",
        "ood"
      ],
      [
        "Pure",
        "ly"
      ],
      [
        "ĠP",
        "ack"
      ],
      [
        "H",
        "ar"
      ],
      [
        "v",
        "est"
      ],
      [
        "Ġ",
        "E"
      ],
      [
        "ĠL",
        "an"
      ],
      [
        "Har",
        "vest"
      ],
      [
        "ĠLan",
        "e"
      ],
      [
        "C",
        "or"
      ],
      [
        "ĠM",
        "arket"
      ],
      [
        "Cor",
        "ner"
      ],
      [
        "O",
        "ak"
      ],
      [
        "Ġ",
        "&"
      ],
      [
        "a",
        "c"
      ],
      [
        "ĠUn",
        "s"
      ],
      [
        "N",
        "ort"
      ],
      [
        "al",
        "l"
      ],
      [
        "ĠF",
        "ood"
      ],
      [
        "ĠSt",
        "ar"
      ],
      [
        "Nort",
        "h"
      ],
      [
        "ĠFood",
        "s"
      ],
      [
        "ur",
        "r"
      ],
      [
        "R",
        "iv"
      ],
      [
        "b",
        "end"
      ],
      [
        "er",
        "bend"
      ],
      [
        "Ġm",
        "o"
      ],
      [
        "Riv",
        "erbend"
      ],
      [
        "ĠP",
        "ean"
      ],
      [
        "S",
        "un"
      ],
      [
        "n",
        "y"
      ],
      [
        "ĠB",
        "as"
      ],
      [
        "Sun",
        "ny"
      ],
      [
        "ĠBas",
        "ket"
      ],
      [
        "G",
        "old"
      ],
      [
        "c",
        "re"
      ],
      [
        "ĠA",
        "cre"
      ],
      [
        "Gold",
        "en"
      ],
      [
        "m",
        "ul"
      ],
      [
        "mul",
        "a"
      ],
      [
        "Ġp",
        "ast"
      ],
      [
        "ĠC",
        "l"
      ],
      [
        "b",
        "er"
      ],
      [
        "V",
        "al"
      ],
      [
        "c",
        "t"
      ],
      [
        "ĠC",
        "ho"
      ],
      [
        "le",
        "y"
      ],
      [
        "le",
        "ct"
      ],
      [
        "ĠSe",
        "lect"
      ],
      [
        "Val",
        "ley"
      ],
      [
        "et",
        "s"
      ],
      [
        "Ġ",
        "ho"
      ],
      [
        "Ġm",
        "ater"
      ],
      [
        "ĠHo",
        "usehold"
      ],
      [
        "ial",
        "s"
      ],
      [
        "Ġho",
        "usehold"
      ],
      [
        "Ġmater",
        "ials"
      ],
      [
        "Ġfor",
        "mula"
      ],
      [
        "t",
        "t"
      ],
      [
        "G",
        "reen"
      ],
      [
        "ĠF",
        "ork"
      ],
      [
        "it",
        "ion"
      ],
      [
        "f",
        "ten"
      ],
      [
        "Ġm",
        "ixed"
      ],
      [
        "af",
        "f"
      ],
      [
        "an",
        "ce"
      ],
      [
        "Ġd",
        "e"
      ],
      [
        "t",
        "ra"
      ],
      [
        "x",
        "tra"
      ],
      [
        "Ġp",
        "ersonal"
      ],
      [
        "ĠP",
        "ersonal"
      ],
      [
        "rg",
        "in"
      ],
      [
        "ĠVi",
        "rgin"
      ],
      [
        "ĠE",
        "xtra"
      ],
      [
        "d",
        "y"
      ],
      [
        "ĠR",
        "ea"
      ],
      [
        "Ġ2",
        "4"
      ],
      [
        "ĠRea",
        "dy"
      ],
      [
        "C",
        "ed"
      ],
      [
        "ĠHo",
        "use"
      ],
      [
        "Ced",
        "ar"
      ],
      [
        "s",
        "ic"
      ],
      [
        "he",
        "ll"
      ],
      [
        "as",
        "sic"
      ],
      [
        "ĠCl",
        "assic"
      ],
      [
        "ĠC",
        "le"
      ],
      [
        "r",
        "i"
      ],
      [
        "ĠPo",
        "p"
      ],
      [
        "Ġt",
        "h"
      ],
      [
        "Ġs",
        "ea"
      ],
      [
        "ĠSea",
        "food"
      ],
      [
        "Ġsea",
        "food"
      ],
      [
        "ra",
        "is"
      ],
      [
        "ĠS",
        "od"
      ],
      [
        "ĠSod",
        "ium"
      ],
      [
        "Ġf",
        "ar"
      ],
      [
        "c",
        "c"
      ],
      [
        "p",
        "end"
      ],
      [
        "Ġa",
        "cc"
      ],
      [
        "Ġp",
        "ick"
      ],
      [
        "ord",
        "ing"
      ],
      [
        "Ġre",
        "view"
      ],
      [
        "Ġde",
        "pend"
      ],
      [
        "Ġacc",
        "ording"
      ],
      [
        "Ġreview",
        "s"
      ],
      [
        "Ġdepend",
        "able"
      ],
      [
        "Ġ",
        "line"
      ],
      [
        "ĠStock",
        "ed"
      ],
      [
        "Ġline",
        "up"
      ],
      [
        "ĠW",
        "as"
      ],
      [
        "ĠT",
        "ree"
      ],
      [
        "ill",
        "a"
      ],
      [
        "Ġn",
        "uts"
      ],
      [
        "les",
        "s"
      ],
      [
        "an",
        "ic"
      ],
      [
        "om",
        "ato"
      ],
      [
        "ĠO",
        "rg"
      ],
      [
        "ĠOrg",
        "anic"
      ],
      [
        "er",
        "ing"
      ],
      [
        "Ġst",
        "andard"
      ],
      [
        "Ġord",
        "ering"
      ],
      [
        "ĠA",
        "vail"
      ],
      [
        "ĠT",
        "ag"
      ],
      [
        "ĠPean",
        "uts"
      ],
      [
        "ĠAvail",
        "able"
      ],
      [
        "ĠSt",
        "ea"
      ],
      [
        "t",
        "in"
      ],
      [
        "u",
        "ing"
      ],
      [
        "Ġ",
        "I"
      ],
      [
        "ar",
        "ance"
      ],
      [
        "is",
        "con"
      ],
      [
        "ĠSo",
        "on"
      ],
      [
        "ĠD",
        "iscon"
      ],
      [
        "ĠCle",
        "arance"
      ],
      [
        "tin",
        "uing"
      ],
      [
        "ĠDiscon",
        "tinuing"
      ],
      [
        "c",
        "ent"
      ],
      [
        "v",
        "ent"
      ],
      [
        "or",
        "y"
      ],
      [
        "ĠS",
        "hopp"
      ],
      [
        "ĠS",
        "hips"
      ],
      [
        "Ġin",
        "vent"
      ],
      [
        "ĠShopp",
        "er"
      ],
      [
        "Ġinvent",
        "ory"
      ],
      [
        "n",
        "ing"
      ],
      [
        "t",
        "ur"
      ],
      [
        "Ġre",
        "tur"
      ],
      [
        "ĠFre",
        "qu"
      ],
      [
        "Ġretur",
        "ning"
      ],
      [
        "ĠFrequ",
        "ently"
      ],
      [
        "r",
        "ated"
      ],
      [
        "ĠUn",
        "rated"
      ],
      [
        "ĠG",
        "lu"
      ],
      [
        "ĠGlu",
        "ten"
      ],
      [
        "a",
        "in"
      ],
      [
        "ĠC",
        "urr"
      ],
      [
        "ĠCurr",
        "ent"
      ],
      [
        "m",
        "ium"
      ],
      [
        "ĠPre",
        "mium"
      ],
      [
        "re",
        "purchased"
      ],
      [
        "es",
        "s"
      ],
      [
        "Ġc",
        "o"
      ],
      [
        "Ġl",
        "ess"
      ],
      [
        "ĠSt",
        "andard"
      ],
      [
        "ĠRe",
        "ceiv"
      ],
      [
        "Ġfro",
        "m"
      ],
      [
        "ĠReceiv",
        "ed"
      ],
      [
        "Ġ",
        "#"
      ],
      [
        "ĠP",
        "ick"
      ],
      [
        "ĠH",
        "ighly"
      ],
      [
        "Ġs",
        "p"
      ],
      [
        "d",
        "d"
      ],
      [
        "Ġa",
        "dd"
      ],
      [
        "ĠA",
        "dded"
      ],
      [
        "ĠRe",
        "gular"
      ],
      [
        "ew",
        "er"
      ],
      [
        "Ġn",
        "ewer"
      ],
      [
        "Ġadd",
        "ition"
      ],
      [
        "er",
        "al"
      ],
      [
        "en",
        "eral"
      ],
      [
        "ĠS",
        "m"
      ],
      [
        "Ġp",
        "os"
      ],
      [
        "ĠC",
        "h"
      ],
      [
        "Ġre",
        "ceiv"
      ],
      [
        "ĠG",
        "eneral"
      ],
      [
        "Ġpos",
        "itive"
      ],
      [
        "Ġreceiv",
        "es"
      ],
      [
        "ĠGeneral",
        "ly"
      ],
      [
        "Ġ",
        "is"
      ],
      [
        "st",
        "ing"
      ],
      [
        "ĠC",
        "ustom"
      ],
      [
        "Ġst",
        "ill"
      ],
      [
        "Ġli",
        "sting"
      ],
      [
        "Ġth",
        "is"
      ],
      [
        "ĠCustom",
        "er"
      ],
      [
        "Ġre",
        "purchased"
      ],
      [
        "Ġmo",
        "st"
      ],
      [
        "Ġa",
        "dded"
      ],
      [
        "ĠRe",
        "ordered"
      ],
      [
        "ick",
        "en"
      ],
      [
        "ĠCho",
        "ice"
      ],
      [
        "ĠPop",
        "ular"
      ],
      [
        "ĠWas",
        "hed"
      ],
      [
        "ĠS",
        "l"
      ],
      [
        "ĠTo",
        "p"
      ],
      [
        "Ġ",
        "qu"
      ],
      [
        "Ġf",
        "ut"
      ],
      [
        "Ġa",
        "vail"
      ],
      [
        "al",
        "ity"
      ],
      [
        "ar",
        "ked"
      ],
      [
        "il",
        "ity"
      ],
      [
        "Ġc",
        "onsist"
      ],
      [
        "ĠM",
        "arked"
      ],
      [
        "ab",
        "ility"
      ],
      [
        "Ġh",
        "ighly"
      ],
      [
        "Ġqu",
        "ality"
      ],
      [
        "Ġfut",
        "ure"
      ],
      [
        "Ġavail",
        "ability"
      ],
      [
        "Ġconsist",
        "ent"
      ],
      [
        "ĠB",
        "est"
      ],
      [
        "ĠSe",
        "ller"
      ],
      [
        "ĠMin",
        "i"
      ],
      [
        "c",
        "om"
      ],
      [
        "m",
        "en"
      ],
      [
        "p",
        "eat"
      ],
      [
        "Ġre",
        "com"
      ],
      [
        "Ġre",
        "peat"
      ],
      [
        "ĠO",
        "ften"
      ],
      [
        "men",
        "ded"
      ],
      [
        "Ġrecom",
        "mended"
      ],
      [
        "ĠRe",
        "view"
      ],
      [
        "ĠReview",
        "ed"
      ],
      [
        "f",
        "t"
      ],
      [
        "on",
        "e"
      ],
      [
        "ĠSo",
        "ft"
      ],
      [
        "Ġp",
        "rais"
      ],
      [
        "ĠC",
        "onsist"
      ],
      [
        "Ġprais",
        "ed"
      ],
      [
        "ĠConsist",
        "ently"
      ],
      [
        "Ġli",
        "ked"
      ],
      [
        "k",
        "in"
      ],
      [
        "ĠS",
        "kin"
      ],
      [
        "e",
        "ine"
      ],
      [
        "ĠC",
        "aff"
      ],
      [
        "ur",
        "t"
      ],
      [
        "og",
        "urt"
      ],
      [
        "ĠCaff",
        "eine"
      ],
      [
        "ĠP",
        "ul"
      ],
      [
        "ĠPul",
        "p"
      ],
      [
        "ĠS",
        "hell"
      ],
      [
        "t",
        "er"
      ],
      [
        "er",
        "o"
      ],
      [
        "ut",
        "ter"
      ],
      [
        "ĠZ",
        "ero"
      ],
      [
        "l",
        "ed"
      ],
      [
        "o",
        "c"
      ],
      [
        "n",
        "am"
      ],
      [
        "o",
        "t"
      ],
      [
        "ol",
        "i"
      ],
      [
        "ĠUns",
        "weetened"
      ],
      [
        "u",
        "ice"
      ],
      [
        "p",
        "y"
      ],
      [
        "on",
        "g"
      ],
      [
        "is",
        "py"
      ],
      [
        "ĠCr",
        "ispy"
      ],
      [
        "t",
        "al"
      ],
      [
        "ĠI",
        "tal"
      ],
      [
        "ber",
        "ry"
      ],
      [
        "ĠS",
        "weetened"
      ],
      [
        "at",
        "ch"
      ],
      [
        "ur",
        "ed"
      ],
      [
        "ĠR",
        "ip"
      ],
      [
        "ĠB",
        "atch"
      ],
      [
        "ĠCult",
        "ured"
      ],
      [
        "ĠSm",
        "all"
      ],
      [
        "ĠRip",
        "e"
      ],
      [
        "Ġb",
        "re"
      ],
      [
        "ĠB",
        "re"
      ],
      [
        "ĠSo",
        "ur"
      ],
      [
        "ĠC",
        "heese"
      ],
      [
        "Ġc",
        "heese"
      ],
      [
        "ĠSalt",
        "ed"
      ],
      [
        "a",
        "ce"
      ],
      [
        "f",
        "ace"
      ],
      [
        "ur",
        "face"
      ],
      [
        "e",
        "mon"
      ],
      [
        "ĠL",
        "emon"
      ],
      [
        "an",
        "illa"
      ],
      [
        "ee",
        "f"
      ],
      [
        "f",
        "f"
      ],
      [
        "r",
        "t"
      ],
      [
        "ĠA",
        "rt"
      ],
      [
        "is",
        "an"
      ],
      [
        "ĠArt",
        "isan"
      ],
      [
        "m",
        "able"
      ],
      [
        "ĠStea",
        "mable"
      ],
      [
        "a",
        "ch"
      ],
      [
        "in",
        "ach"
      ],
      [
        "ic",
        "ed"
      ],
      [
        "ĠSl",
        "iced"
      ],
      [
        "o",
        "k"
      ],
      [
        "Ġb",
        "aby"
      ],
      [
        "ĠB",
        "aby"
      ],
      [
        "ĠH",
        "eat"
      ],
      [
        "r",
        "an"
      ],
      [
        "w",
        "e"
      ],
      [
        "Ġ",
        "ro"
      ],
      [
        "ĠB",
        "ak"
      ],
      [
        "ĠBak",
        "ed"
      ],
      [
        "Ġ1",
        "5"
      ],
      [
        "e",
        "al"
      ],
      [
        "ĠS",
        "urface"
      ],
      [
        "ĠF",
        "at"
      ],
      [
        "ĠT",
        "h"
      ],
      [
        "ĠF",
        "ish"
      ],
      [
        "ĠSp",
        "ain"
      ],
      [
        "m",
        "o"
      ],
      [
        "al",
        "f"
      ],
      [
        "e",
        "x"
      ],
      [
        "ent",
        "le"
      ],
      [
        "ĠM",
        "ex"
      ],
      [
        "Ġs",
        "al"
      ],
      [
        "ĠG",
        "entle"
      ],
      [
        "ic",
        "o"
      ],
      [
        "ĠMex",
        "ico"
      ],
      [
        "e",
        "y"
      ],
      [
        "k",
        "ey"
      ],
      [
        "ur",
        "key"
      ],
      [
        "is",
        "s"
      ],
      [
        "ch",
        "y"
      ],
      [
        "un",
        "chy"
      ],
      [
        "ĠCr",
        "unchy"
      ],
      [
        "ac",
        "o"
      ],
      [
        "at",
        "s"
      ],
      [
        "ll",
        "ed"
      ],
      [
        "ĠZ",
        "eal"
      ],
      [
        "ĠZeal",
        "and"
      ],
      [
        "l",
        "s"
      ],
      [
        "an",
        "an"
      ],
      [
        "ĠB",
        "one"
      ],
      [
        "ĠCo",
        "ok"
      ],
      [
        "ĠBone",
        "less"
      ],
      [
        "l",
        "ive"
      ],
      [
        "Ġ",
        "v"
      ],
      [
        "ro",
        "und"
      ],
      [
        "ro",
        "zen"
      ],
      [
        "ĠF",
        "rozen"
      ],
      [
        "ĠM",
        "ult"
      ],
      [
        "ĠMult",
        "i"
      ],
      [
        "f",
        "ish"
      ],
      [
        "ĠSeason",
        "ed"
      ],
      [
        "ĠShell",
        "fish"
      ],
      [
        "ĠP",
        "art"
      ],
      [
        "ĠPart",
        "y"
      ],
      [
        "Ġ6",
        "4"
      ],
      [
        "ĠItal",
        "y"
      ],
      [
        "ĠS",
        "cent"
      ],
      [
        "Ġ2",
        "0"
      ],
      [
        "ĠC",
        "an"
      ],
      [
        "ad",
        "a"
      ],
      [
        "ĠCan",
        "ada"
      ],
      [
        "l",
        "ack"
      ],
      [
        "ean",
        "s"
      ],
      [
        "d",
        "r"
      ],
      [
        "p",
        "s"
      ],
      [
        "y",
        "dr"
      ],
      [
        "at",
        "ing"
      ],
      [
        "Ġt",
        "omato"
      ],
      [
        "ĠT",
        "omato"
      ],
      [
        "ĠH",
        "ydr"
      ],
      [
        "ĠHydr",
        "ating"
      ],
      [
        "r",
        "up"
      ],
      [
        "y",
        "rup"
      ],
      [
        "ag",
        "s"
      ],
      [
        "ag",
        "he"
      ],
      [
        "ail",
        "and"
      ],
      [
        "ap",
        "le"
      ],
      [
        "tt",
        "i"
      ],
      [
        "ĠTh",
        "ailand"
      ],
      [
        "aghe",
        "tti"
      ],
      [
        "a",
        "uce"
      ],
      [
        "ĠL",
        "ean"
      ],
      [
        "c",
        "u"
      ],
      [
        "u",
        "cu"
      ],
      [
        "mb",
        "ers"
      ],
      [
        "pp",
        "les"
      ],
      [
        "ucu",
        "mbers"
      ],
      [
        "er",
        "u"
      ],
      [
        "ĠP",
        "eru"
      ],
      [
        "ol",
        "a"
      ],
      [
        "ĠC",
        "are"
      ],
      [
        "il",
        "e"
      ],
      [
        "et",
        "nam"
      ],
      [
        "ĠD",
        "aily"
      ],
      [
        "ato",
        "es"
      ],
      [
        "ĠVi",
        "etnam"
      ],
      [
        "ĠCh",
        "ile"
      ],
      [
        "we",
        "et"
      ],
      [
        "ĠS",
        "h"
      ],
      [
        "Ġs",
        "h"
      ],
      [
        "ĠUns",
        "cent"
      ],
      [
        "ĠUnscent",
        "ed"
      ],
      [
        "a",
        "ine"
      ],
      [
        "d",
        "ar"
      ],
      [
        "h",
        "icken"
      ],
      [
        "l",
        "mo"
      ],
      [
        "ar",
        "p"
      ],
      [
        "Ġc",
        "hicken"
      ],
      [
        "art",
        "s"
      ],
      [
        "ad",
        "e"
      ],
      [
        "hed",
        "dar"
      ],
      [
        "ĠCh",
        "icken"
      ],
      [
        "lmo",
        "nd"
      ],
      [
        "tt",
        "age"
      ],
      [
        "anan",
        "as"
      ],
      [
        "ĠR",
        "o"
      ],
      [
        "v",
        "y"
      ],
      [
        "ea",
        "vy"
      ],
      [
        "ĠH",
        "eavy"
      ],
      [
        "ut",
        "y"
      ],
      [
        "ĠD",
        "uty"
      ],
      [
        "c",
        "oli"
      ],
      [
        "or",
        "ets"
      ],
      [
        "roc",
        "coli"
      ],
      [
        "ap",
        "er"
      ],
      [
        "ĠMin",
        "t"
      ],
      [
        "ĠSkin",
        "less"
      ],
      [
        "r",
        "in"
      ],
      [
        "Ġg",
        "al"
      ],
      [
        "ant",
        "s"
      ],
      [
        "up",
        "s"
      ],
      [
        "ort",
        "s"
      ],
      [
        "rin",
        "k"
      ],
      [
        "ĠS",
        "ens"
      ],
      [
        "ĠSens",
        "itive"
      ],
      [
        "Ġ1",
        "0"
      ],
      [
        "ak",
        "es"
      ],
      [
        "y",
        "ogurt"
      ],
      [
        "Ġ",
        "yogurt"
      ],
      [
        "ĠY",
        "ogurt"
      ],
      [
        "a",
        "ug"
      ],
      [
        "w",
        "ber"
      ],
      [
        "ĠC",
        "aug"
      ],
      [
        "il",
        "d"
      ],
      [
        "ĠW",
        "ild"
      ],
      [
        "ra",
        "wber"
      ],
      [
        "ri",
        "es"
      ],
      [
        "ĠCaug",
        "ht"
      ],
      [
        "rawber",
        "ries"
      ],
      [
        "ĠP",
        "ee"
      ],
      [
        "Ġ1",
        "8"
      ],
      [
        "con",
        "ut"
      ],
      [
        "ĠPee",
        "led"
      ],
      [
        "ĠF",
        "l"
      ],
      [
        "z",
        "z"
      ],
      [
        "ll",
        "a"
      ],
      [
        "Ġb",
        "utter"
      ],
      [
        "ĠB",
        "utter"
      ],
      [
        "ĠG",
        "ree"
      ],
      [
        "are",
        "lla"
      ],
      [
        "un",
        "s"
      ],
      [
        "ri",
        "oc"
      ],
      [
        "zz",
        "arella"
      ],
      [
        "ĠGree",
        "k"
      ],
      [
        "rioc",
        "he"
      ],
      [
        "s",
        "af"
      ],
      [
        "Ġm",
        "ilk"
      ],
      [
        "saf",
        "e"
      ],
      [
        "r",
        "ice"
      ],
      [
        "v",
        "oc"
      ],
      [
        "Ġ",
        "rice"
      ],
      [
        "ĠR",
        "ice"
      ],
      [
        "ad",
        "os"
      ],
      [
        "voc",
        "ados"
      ],
      [
        "b",
        "ly"
      ],
      [
        "c",
        "ed"
      ],
      [
        "c",
        "led"
      ],
      [
        "p",
        "onsi"
      ],
      [
        "y",
        "cled"
      ],
      [
        "es",
        "ponsi"
      ],
      [
        "ĠR",
        "esponsi"
      ],
      [
        "ĠRec",
        "ycled"
      ],
      [
        "ĠSour",
        "ced"
      ],
      [
        "ĠResponsi",
        "bly"
      ],
      [
        "J",
        "uice"
      ],
      [
        "j",
        "uice"
      ],
      [
        "Ġ",
        "Juice"
      ],
      [
        "Ġ",
        "juice"
      ],
      [
        "Ġg",
        "reen"
      ],
      [
        "ĠG",
        "reen"
      ],
      [
        "d",
        "o"
      ],
      [
        "g",
        "e"
      ],
      [
        "ug",
        "h"
      ],
      [
        "do",
        "ugh"
      ],
      [
        "k",
        "l"
      ],
      [
        "Ġp",
        "ot"
      ],
      [
        "par",
        "kl"
      ],
      [
        "ort",
        "ill"
      ],
      [
        "ĠPo",
        "t"
      ],
      [
        "parkl",
        "ing"
      ],
      [
        "ortill",
        "as"
      ],
      [
        "e",
        "g"
      ],
      [
        "p",
        "e"
      ],
      [
        "ĠA",
        "nd"
      ],
      [
        "ea",
        "s"
      ],
      [
        "ab",
        "les"
      ],
      [
        "ra",
        "pe"
      ],
      [
        "et",
        "ables"
      ],
      [
        "eg",
        "etables"
      ],
      [
        "g",
        "ets"
      ],
      [
        "u",
        "ff"
      ],
      [
        "in",
        "s"
      ],
      [
        "it",
        "a"
      ],
      [
        "ug",
        "gets"
      ],
      [
        "ock",
        "ets"
      ],
      [
        "ĠV",
        "anilla"
      ],
      [
        "lue",
        "berry"
      ],
      [
        "Ġv",
        "anilla"
      ],
      [
        "uff",
        "ins"
      ],
      [
        "Ġb",
        "eef"
      ],
      [
        "ĠB",
        "eef"
      ],
      [
        "Ġs",
        "our"
      ],
      [
        "s",
        "a"
      ],
      [
        "ĠSp",
        "inach"
      ],
      [
        "Ġsp",
        "inach"
      ],
      [
        "as",
        "h"
      ],
      [
        "l",
        "ain"
      ],
      [
        "age",
        "ls"
      ],
      [
        "ro",
        "iss"
      ],
      [
        "ff",
        "ee"
      ],
      [
        "roiss",
        "ants"
      ],
      [
        "in",
        "nam"
      ],
      [
        "innam",
        "on"
      ],
      [
        "e",
        "pp"
      ],
      [
        "z",
        "a"
      ],
      [
        "er",
        "on"
      ],
      [
        "in",
        "ner"
      ],
      [
        "ll",
        "s"
      ],
      [
        "ĠM",
        "o"
      ],
      [
        "iz",
        "za"
      ],
      [
        "epp",
        "eron"
      ],
      [
        "epperon",
        "i"
      ],
      [
        "Ġc",
        "ream"
      ],
      [
        "Ġw",
        "hole"
      ],
      [
        "t",
        "s"
      ],
      [
        "le",
        "ts"
      ],
      [
        "v",
        "ol"
      ],
      [
        "vol",
        "one"
      ],
      [
        "Ġbre",
        "ad"
      ],
      [
        "ĠBre",
        "ad"
      ],
      [
        "ĠSo",
        "up"
      ],
      [
        "Ġso",
        "up"
      ],
      [
        "c",
        "or"
      ],
      [
        "cor",
        "n"
      ],
      [
        "ack",
        "ers"
      ],
      [
        "ĠH",
        "alf"
      ],
      [
        "Ġh",
        "alf"
      ],
      [
        "aff",
        "les"
      ],
      [
        "ar",
        "s"
      ],
      [
        "Ġt",
        "urkey"
      ],
      [
        "ĠT",
        "urkey"
      ],
      [
        "ran",
        "ola"
      ],
      [
        "5",
        "0"
      ],
      [
        "Ġ",
        "50"
      ],
      [
        "Ġs",
        "hell"
      ],
      [
        "Ġt",
        "aco"
      ],
      [
        "ĠT",
        "aco"
      ],
      [
        "ĠShell",
        "s"
      ],
      [
        "Ġshell",
        "s"
      ],
      [
        "f",
        "ast"
      ],
      [
        "Ġo",
        "ats"
      ],
      [
        "it",
        "os"
      ],
      [
        "ĠO",
        "ats"
      ],
      [
        "ĠSo",
        "ap"
      ],
      [
        "ak",
        "fast"
      ],
      [
        "Ġso",
        "ap"
      ],
      [
        "urr",
        "itos"
      ],
      [
        "Ġro",
        "lled"
      ],
      [
        "ĠRo",
        "lled"
      ],
      [
        "ĠC",
        "hips"
      ],
      [
        "Ġc",
        "hips"
      ],
      [
        "e",
        "l"
      ],
      [
        "i",
        "st"
      ],
      [
        "t",
        "z"
      ],
      [
        "w",
        "ist"
      ],
      [
        "Ġo",
        "il"
      ],
      [
        "Ġo",
        "live"
      ],
      [
        "ra",
        "il"
      ],
      [
        "ĠO",
        "live"
      ],
      [
        "igh",
        "s"
      ],
      [
        "tz",
        "el"
      ],
      [
        "wist",
        "s"
      ],
      [
        "ĠL",
        "ong"
      ],
      [
        "ĠF",
        "r"
      ],
      [
        "Ġg",
        "rain"
      ],
      [
        "Ġl",
        "ong"
      ],
      [
        "a",
        "con"
      ],
      [
        "b",
        "all"
      ],
      [
        "Ġc",
        "ho"
      ],
      [
        "ball",
        "s"
      ],
      [
        "Ġst",
        "ea"
      ],
      [
        "Ġg",
        "round"
      ],
      [
        "ĠG",
        "round"
      ],
      [
        "ort",
        "illa"
      ],
      [
        "ĠStea",
        "k"
      ],
      [
        "Ġstea",
        "k"
      ],
      [
        "a",
        "us"
      ],
      [
        "i",
        "an"
      ],
      [
        "ĠItal",
        "ian"
      ],
      [
        "aus",
        "age"
      ],
      [
        "c",
        "ol"
      ],
      [
        "i",
        "es"
      ],
      [
        "at",
        "e"
      ],
      [
        "col",
        "ate"
      ],
      [
        "r",
        "ic"
      ],
      [
        "Ġb",
        "lack"
      ],
      [
        "Ġb",
        "eans"
      ],
      [
        "ĠB",
        "lack"
      ],
      [
        "ĠB",
        "eans"
      ],
      [
        "ab",
        "ric"
      ],
      [
        "ra",
        "sh"
      ],
      [
        "ften",
        "er"
      ],
      [
        "Ġp",
        "o"
      ],
      [
        "h",
        "p"
      ],
      [
        "h",
        "w"
      ],
      [
        "ĠS",
        "yrup"
      ],
      [
        "Ġb",
        "ags"
      ],
      [
        "ĠM",
        "aple"
      ],
      [
        "Ġs",
        "yrup"
      ],
      [
        "ĠB",
        "ags"
      ],
      [
        "Ġm",
        "aple"
      ],
      [
        "ut",
        "hw"
      ],
      [
        "ĠSp",
        "aghetti"
      ],
      [
        "ast",
        "e"
      ],
      [
        "Ġsp",
        "aghetti"
      ],
      [
        "ot",
        "hp"
      ],
      [
        "uthw",
        "ash"
      ],
      [
        "othp",
        "aste"
      ],
      [
        "ĠS",
        "auce"
      ],
      [
        "ĠP",
        "ast"
      ],
      [
        "Ġs",
        "auce"
      ],
      [
        "Ġpast",
        "a"
      ],
      [
        "ĠPast",
        "a"
      ],
      [
        "l",
        "end"
      ],
      [
        "u",
        "it"
      ],
      [
        "z",
        "er"
      ],
      [
        "un",
        "a"
      ],
      [
        "in",
        "i"
      ],
      [
        "Ġa",
        "pples"
      ],
      [
        "ĠC",
        "ucumbers"
      ],
      [
        "Ġc",
        "ucumbers"
      ],
      [
        "ĠA",
        "pples"
      ],
      [
        "Ġm",
        "ini"
      ],
      [
        "m",
        "p"
      ],
      [
        "ri",
        "mp"
      ],
      [
        "ĠS",
        "weet"
      ],
      [
        "Ġp",
        "ean"
      ],
      [
        "Ġc",
        "r"
      ],
      [
        "Ġs",
        "weet"
      ],
      [
        "ĠPean",
        "ut"
      ],
      [
        "Ġpot",
        "atoes"
      ],
      [
        "ĠPot",
        "atoes"
      ],
      [
        "Ġpean",
        "ut"
      ],
      [
        "i",
        "r"
      ],
      [
        "i",
        "ons"
      ],
      [
        "l",
        "o"
      ],
      [
        "m",
        "in"
      ],
      [
        "o",
        "o"
      ],
      [
        "o",
        "il"
      ],
      [
        "p",
        "oo"
      ],
      [
        "u",
        "es"
      ],
      [
        "ĠSal",
        "mon"
      ],
      [
        "am",
        "poo"
      ],
      [
        "lu",
        "min"
      ],
      [
        "ort",
        "ions"
      ],
      [
        "ac",
        "ial"
      ],
      [
        "ong",
        "es"
      ],
      [
        "Ġsal",
        "mon"
      ],
      [
        "iss",
        "ues"
      ],
      [
        "ir",
        "lo"
      ],
      [
        "lumin",
        "um"
      ],
      [
        "irlo",
        "in"
      ],
      [
        "e",
        "arts"
      ],
      [
        "m",
        "aine"
      ],
      [
        "Ġ",
        "le"
      ],
      [
        "Ġ",
        "he"
      ],
      [
        "Ġa",
        "lmond"
      ],
      [
        "ĠC",
        "heddar"
      ],
      [
        "Ġc",
        "heddar"
      ],
      [
        "ĠA",
        "lmond"
      ],
      [
        "ĠR",
        "om"
      ],
      [
        "ĠM",
        "ac"
      ],
      [
        "Ġm",
        "ac"
      ],
      [
        "ĠH",
        "earts"
      ],
      [
        "mon",
        "ade"
      ],
      [
        "ĠLemon",
        "ade"
      ],
      [
        "Ġro",
        "maine"
      ],
      [
        "ĠSh",
        "arp"
      ],
      [
        "Ġsh",
        "arp"
      ],
      [
        "Ġle",
        "monade"
      ],
      [
        "Ġhe",
        "arts"
      ],
      [
        "ĠRom",
        "aine"
      ],
      [
        "il",
        "et"
      ],
      [
        "Ġb",
        "ananas"
      ],
      [
        "ĠB",
        "ananas"
      ],
      [
        "ĠCo",
        "ttage"
      ],
      [
        "Ġco",
        "ttage"
      ],
      [
        "w",
        "ab"
      ],
      [
        "nd",
        "ition"
      ],
      [
        "Ġp",
        "aper"
      ],
      [
        "ĠP",
        "aper"
      ],
      [
        "Ġb",
        "roccoli"
      ],
      [
        "Ġfl",
        "orets"
      ],
      [
        "ĠB",
        "roccoli"
      ],
      [
        "tt",
        "on"
      ],
      [
        "ĠFl",
        "orets"
      ],
      [
        "wab",
        "s"
      ],
      [
        "ndition",
        "er"
      ],
      [
        "ĠC",
        "ups"
      ],
      [
        "Ġc",
        "ups"
      ],
      [
        "Ġd",
        "rink"
      ],
      [
        "ĠSp",
        "orts"
      ],
      [
        "ĠD",
        "rink"
      ],
      [
        "Ġsp",
        "orts"
      ],
      [
        "an",
        "er"
      ],
      [
        "we",
        "ls"
      ],
      [
        "ĠC",
        "akes"
      ],
      [
        "Ġc",
        "akes"
      ],
      [
        "c",
        "all"
      ],
      [
        "o",
        "ps"
      ],
      [
        "or",
        "ant"
      ],
      [
        "Ġst",
        "rawberries"
      ],
      [
        "ĠSt",
        "rawberries"
      ],
      [
        "od",
        "y"
      ],
      [
        "od",
        "orant"
      ],
      [
        "call",
        "ops"
      ],
      [
        "ĠCo",
        "conut"
      ],
      [
        "Ġco",
        "conut"
      ],
      [
        "l",
        "ices"
      ],
      [
        "Ġb",
        "uns"
      ],
      [
        "Ġb",
        "rioche"
      ],
      [
        "Ġs",
        "lices"
      ],
      [
        "ĠB",
        "uns"
      ],
      [
        "ĠB",
        "rioche"
      ],
      [
        "Ġmo",
        "zzarella"
      ],
      [
        "ĠSl",
        "ices"
      ],
      [
        "ĠMo",
        "zzarella"
      ],
      [
        "Ġa",
        "vocados"
      ],
      [
        "Ġc",
        "ran"
      ],
      [
        "ĠA",
        "vocados"
      ],
      [
        "an",
        "berry"
      ],
      [
        "Ġt",
        "ea"
      ],
      [
        "ĠT",
        "ea"
      ],
      [
        "ĠCr",
        "anberry"
      ],
      [
        "Ġcran",
        "berry"
      ],
      [
        "a",
        "und"
      ],
      [
        "g",
        "ent"
      ],
      [
        "er",
        "gent"
      ],
      [
        "et",
        "ergent"
      ],
      [
        "ick",
        "s"
      ],
      [
        "aund",
        "ry"
      ],
      [
        "o",
        "af"
      ],
      [
        "Ġ",
        "or"
      ],
      [
        "an",
        "ge"
      ],
      [
        "Ġl",
        "oaf"
      ],
      [
        "ĠO",
        "ran"
      ],
      [
        "ĠLo",
        "af"
      ],
      [
        "ĠSour",
        "dough"
      ],
      [
        "Ġsour",
        "dough"
      ],
      [
        "Ġor",
        "ange"
      ],
      [
        "ĠOran",
        "ge"
      ],
      [
        "ĠS",
        "parkling"
      ],
      [
        "Ġs",
        "parkling"
      ],
      [
        "Ġt",
        "ortillas"
      ],
      [
        "ĠT",
        "ortillas"
      ],
      [
        "ĠFl",
        "our"
      ],
      [
        "Ġp",
        "eas"
      ],
      [
        "Ġg",
        "rape"
      ],
      [
        "ĠP",
        "eas"
      ],
      [
        "ĠM",
        "ixed"
      ],
      [
        "ĠG",
        "rape"
      ],
      [
        "ĠV",
        "egetables"
      ],
      [
        "Ġv",
        "egetables"
      ],
      [
        "Ġtomato",
        "es"
      ],
      [
        "ĠTomato",
        "es"
      ],
      [
        "Ġp",
        "ita"
      ],
      [
        "Ġp",
        "ockets"
      ],
      [
        "ĠP",
        "ita"
      ],
      [
        "ĠP",
        "ockets"
      ],
      [
        "ĠN",
        "uggets"
      ],
      [
        "Ġb",
        "lueberry"
      ],
      [
        "ĠM",
        "uffins"
      ],
      [
        "ĠB",
        "lueberry"
      ],
      [
        "Ġm",
        "uffins"
      ],
      [
        "Ġn",
        "uggets"
      ],
      [
        "l",
        "a"
      ],
      [
        "r",
        "ips"
      ],
      [
        "Ġc",
        "ola"
      ],
      [
        "ĠCo",
        "la"
      ],
      [
        "ĠSal",
        "sa"
      ],
      [
        "Ġsal",
        "sa"
      ],
      [
        "i",
        "oli"
      ],
      [
        "Ġ",
        "ra"
      ],
      [
        "ĠR",
        "av"
      ],
      [
        "vi",
        "oli"
      ],
      [
        "Ġra",
        "violi"
      ],
      [
        "ĠRav",
        "ioli"
      ],
      [
        "t",
        "ed"
      ],
      [
        "Ġp",
        "lain"
      ],
      [
        "ĠC",
        "roissants"
      ],
      [
        "Ġc",
        "old"
      ],
      [
        "Ġc",
        "roissants"
      ],
      [
        "ĠP",
        "lain"
      ],
      [
        "Ġb",
        "agels"
      ],
      [
        "ĠB",
        "agels"
      ],
      [
        "ĠCo",
        "ld"
      ],
      [
        "ĠCo",
        "ffee"
      ],
      [
        "Ġco",
        "ffee"
      ],
      [
        "Ġbre",
        "w"
      ],
      [
        "ĠBre",
        "w"
      ],
      [
        "Ġsal",
        "ted"
      ],
      [
        "i",
        "a"
      ],
      [
        "il",
        "ap"
      ],
      [
        "ilap",
        "ia"
      ],
      [
        "t",
        "ion"
      ],
      [
        "Ġl",
        "ot"
      ],
      [
        "ĠLo",
        "tion"
      ],
      [
        "Ġlot",
        "ion"
      ],
      [
        "a",
        "is"
      ],
      [
        "Ġ",
        "rais"
      ],
      [
        "ĠC",
        "innamon"
      ],
      [
        "Ġc",
        "innamon"
      ],
      [
        "ĠR",
        "ais"
      ],
      [
        "Ġrais",
        "in"
      ],
      [
        "ĠRais",
        "in"
      ],
      [
        "Ġp",
        "izza"
      ],
      [
        "Ġp",
        "epperoni"
      ],
      [
        "ĠP",
        "izza"
      ],
      [
        "ĠP",
        "epperoni"
      ],
      [
        "Ġd",
        "inner"
      ],
      [
        "ĠD",
        "inner"
      ],
      [
        "Ġro",
        "lls"
      ],
      [
        "ĠRo",
        "lls"
      ],
      [
        "Ġf",
        "il"
      ],
      [
        "ĠFil",
        "lets"
      ],
      [
        "Ġfil",
        "lets"
      ],
      [
        "ro",
        "volone"
      ],
      [
        "ĠP",
        "rovolone"
      ],
      [
        "Ġpro",
        "volone"
      ],
      [
        "o",
        "ked"
      ],
      [
        "r",
        "ance"
      ],
      [
        "ag",
        "rance"
      ],
      [
        "Ġs",
        "mo"
      ],
      [
        "ĠSm",
        "oked"
      ],
      [
        "ĠFr",
        "agrance"
      ],
      [
        "Ġsmo",
        "ked"
      ],
      [
        "Ġ",
        "ice"
      ],
      [
        "ĠI",
        "ce"
      ],
      [
        "p",
        "corn"
      ],
      [
        "ĠPop",
        "corn"
      ],
      [
        "Ġpo",
        "pcorn"
      ],
      [
        "ĠW",
        "affles"
      ],
      [
        "ĠH",
        "am"
      ],
      [
        "Ġd",
        "ish"
      ],
      [
        "Ġw",
        "heat"
      ],
      [
        "Ġw",
        "affles"
      ],
      [
        "ĠD",
        "ish"
      ],
      [
        "ĠCr",
        "ackers"
      ],
      [
        "Ġh",
        "am"
      ],
      [
        "Ġpot",
        "ato"
      ],
      [
        "ĠPot",
        "ato"
      ],
      [
        "Ġcr",
        "ackers"
      ],
      [
        "r",
        "ip"
      ],
      [
        "Ġp",
        "ork"
      ],
      [
        "Ġg",
        "ranola"
      ],
      [
        "ĠP",
        "ork"
      ],
      [
        "Ġb",
        "ars"
      ],
      [
        "ĠB",
        "ars"
      ],
      [
        "ĠG",
        "ranola"
      ],
      [
        "ĠG",
        "rip"
      ],
      [
        "as",
        "y"
      ],
      [
        "ĠE",
        "asy"
      ],
      [
        "ĠCho",
        "ps"
      ],
      [
        "Ġcho",
        "ps"
      ],
      [
        "Ġb",
        "urritos"
      ],
      [
        "ĠB",
        "urritos"
      ],
      [
        "Ġbre",
        "akfast"
      ],
      [
        "ĠBre",
        "akfast"
      ],
      [
        "re",
        "tzel"
      ],
      [
        "Ġp",
        "retzel"
      ],
      [
        "ĠM",
        "ix"
      ],
      [
        "Ġt",
        "rail"
      ],
      [
        "Ġt",
        "wists"
      ],
      [
        "ĠT",
        "rail"
      ],
      [
        "ĠT",
        "wists"
      ],
      [
        "Ġm",
        "ix"
      ],
      [
        "ĠPre",
        "tzel"
      ],
      [
        "Ġth",
        "ighs"
      ],
      [
        "ĠTh",
        "ighs"
      ],
      [
        "Ġb",
        "acon"
      ],
      [
        "ĠB",
        "acon"
      ],
      [
        "ĠH",
        "and"
      ],
      [
        "ĠMeat",
        "balls"
      ],
      [
        "Ġmeat",
        "balls"
      ],
      [
        "Ġh",
        "and"
      ],
      [
        "Ġt",
        "ortilla"
      ],
      [
        "ĠT",
        "ortilla"
      ],
      [
        "ĠS",
        "ausage"
      ],
      [
        "Ġs",
        "ausage"
      ],
      [
        "Ġbre",
        "ast"
      ],
      [
        "ĠBre",
        "ast"
      ],
      [
        "ĠCho",
        "colate"
      ],
      [
        "Ġco",
        "ok"
      ],
      [
        "ĠCook",
        "ies"
      ],
      [
        "Ġcho",
        "colate"
      ],
      [
        "Ġcook",
        "ies"
      ],
      [
        "Ġf",
        "abric"
      ],
      [
        "ĠF",
        "abric"
      ],
      [
        "Ġt",
        "rash"
      ],
      [
        "ĠT",
        "rash"
      ],
      [
        "ĠSo",
        "ftener"
      ],
      [
        "Ġso",
        "ftener"
      ],
      [
        "Ġto",
        "othpaste"
      ],
      [
        "ĠTo",
        "othpaste"
      ],
      [
        "Ġmo",
        "uthwash"
      ],
      [
        "ĠMo",
        "uthwash"
      ],
      [
        "r",
        "uit"
      ],
      [
        "Ġf",
        "ree"
      ],
      [
        "Ġf",
        "ruit"
      ],
      [
        "Ġb",
        "lend"
      ],
      [
        "Ġt",
        "una"
      ],
      [
        "ĠB",
        "lend"
      ],
      [
        "ĠT",
        "una"
      ],
      [
        "ĠFree",
        "zer"
      ],
      [
        "ĠFr",
        "uit"
      ],
      [
        "ĠSteak",
        "s"
      ],
      [
        "Ġsteak",
        "s"
      ],
      [
        "Ġfree",
        "zer"
      ],
      [
        "ĠSh",
        "rimp"
      ],
      [
        "Ġsh",
        "rimp"
      ],
      [
        "Ġf",
        "oil"
      ],
      [
        "Ġf",
        "acial"
      ],
      [
        "ĠS",
        "irloin"
      ],
      [
        "Ġa",
        "luminum"
      ],
      [
        "Ġp",
        "ortions"
      ],
      [
        "ĠC",
        "od"
      ],
      [
        "ĠF",
        "oil"
      ],
      [
        "ĠF",
        "acial"
      ],
      [
        "Ġc",
        "od"
      ],
      [
        "ĠP",
        "ortions"
      ],
      [
        "ĠA",
        "luminum"
      ],
      [
        "Ġs",
        "irloin"
      ],
      [
        "Ġt",
        "issues"
      ],
      [
        "ĠT",
        "issues"
      ],
      [
        "ĠSp",
        "onges"
      ],
      [
        "Ġsp",
        "onges"
      ],
      [
        "ĠSh",
        "ampoo"
      ],
      [
        "Ġsh",
        "ampoo"
      ],
      [
        "u",
        "ch"
      ],
      [
        "pp",
        "le"
      ],
      [
        "Ġto",
        "ilet"
      ],
      [
        "ĠTo",
        "ilet"
      ],
      [
        "anan",
        "a"
      ],
      [
        "uch",
        "es"
      ],
      [
        "ĠS",
        "wabs"
      ],
      [
        "Ġs",
        "wabs"
      ],
      [
        "ĠCo",
        "tton"
      ],
      [
        "ĠCo",
        "nditioner"
      ],
      [
        "Ġco",
        "tton"
      ],
      [
        "Ġco",
        "nditioner"
      ],
      [
        "Ġc",
        "le"
      ],
      [
        "Ġs",
        "urface"
      ],
      [
        "Ġto",
        "wels"
      ],
      [
        "ĠTo",
        "wels"
      ],
      [
        "ĠCle",
        "aner"
      ],
      [
        "Ġcle",
        "aner"
      ],
      [
        "e",
        "odorant"
      ],
      [
        "ĠS",
        "callops"
      ],
      [
        "Ġb",
        "ody"
      ],
      [
        "Ġs",
        "callops"
      ],
      [
        "ĠB",
        "ody"
      ],
      [
        "Ġw",
        "ash"
      ],
      [
        "ĠD",
        "eodorant"
      ],
      [
        "Ġde",
        "odorant"
      ],
      [
        "ĠWas",
        "h"
      ],
      [
        "Ġf",
        "ish"
      ],
      [
        "ĠL",
        "aundry"
      ],
      [
        "Ġst",
        "icks"
      ],
      [
        "ĠSt",
        "icks"
      ],
      [
        "Ġl",
        "aundry"
      ],
      [
        "Ġd",
        "etergent"
      ],
      [
        "ĠD",
        "etergent"
      ],
      [
        "Ġ",
        "4"
      ],
      [
        "f",
        "ant"
      ],
      [
        "l",
        "am"
      ],
      [
        "er",
        "eal"
      ],
      [
        "Ġst",
        "rips"
      ],
      [
        "ĠSt",
        "rips"
      ],
      [
        "Ġc",
        "lam"
      ],
      [
        "ĠCl",
        "am"
      ],
      [
        "d",
        "er"
      ],
      [
        "w",
        "der"
      ],
      [
        "Ġt",
        "ilapia"
      ],
      [
        "ĠT",
        "ilapia"
      ],
      [
        "rain",
        "ing"
      ],
      [
        "ĠCr",
        "ab"
      ],
      [
        "Ġcr",
        "ab"
      ],
      [
        "ure",
        "e"
      ],
      [
        "d",
        "l"
      ],
      [
        "i",
        "ap"
      ],
      [
        "od",
        "dl"
      ],
      [
        "iap",
        "ers"
      ],
      [
        "oddl",
        "er"
      ],
      [
        "Ġa",
        "pple"
      ],
      [
        "ĠA",
        "pple"
      ],
      [
        "Ġb",
        "anana"
      ],
      [
        "ĠB",
        "anana"
      ],
      [
        "ĠPo",
        "uches"
      ],
      [
        "Ġpo",
        "uches"
      ],
      [
        "n",
        "fant"
      ],
      [
        "Ġin",
        "fant"
      ],
      [
        "ĠC",
        "ereal"
      ],
      [
        "Ġc",
        "ereal"
      ],
      [
        "ĠI",
        "nfant"
      ],
      [
        "or",
        "mula"
      ],
      [
        "Ġp",
        "ants"
      ],
      [
        "ĠF",
        "ormula"
      ],
      [
        "ĠP",
        "ants"
      ],
      [
        "Ġt",
        "raining"
      ],
      [
        "ĠT",
        "raining"
      ],
      [
        "ip",
        "es"
      ],
      [
        "ĠPo",
        "wder"
      ],
      [
        "Ġpo",
        "wder"
      ],
      [
        "Ġp",
        "uree"
      ],
      [
        "Ġst",
        "age"
      ],
      [
        "ĠSt",
        "age"
      ],
      [
        "ĠP",
        "uree"
      ],
      [
        "ĠS",
        "nacks"
      ],
      [
        "Ġt",
        "oddler"
      ],
      [
        "ĠT",
        "oddler"
      ],
      [
        "Ġd",
        "iapers"
      ],
      [
        "ĠD",
        "iapers"
      ],
      [
        "ĠW",
        "ipes"
      ],
      [
        "Ġw",
        "ipes"
      ]
    ]
  }
}